<pad>	0
<unk>	0
[CLS]	0
[SEP]	0
[MASK]	0
▁ה	-0
▁ב	-1
▁ל	-2
▁מ	-3
▁א	-4
▁ש	-5
ות	-6
ים	-7
▁t	-8
▁a	-9
▁ו	-10
in	-11
er	-12
▁ע	-13
▁th	-14
ור	-15
▁כ	-16
on	-17
ני	-18
re	-19
en	-20
▁י	-21
is	-22
▁של	-23
▁s	-24
▁the	-25
ול	-26
at	-27
or	-28
ית	-29
it	-30
▁w	-31
es	-32
▁c	-33
רו	-34
▁המ	-35
ou	-36
נו	-37
רי	-38
▁f	-39
an	-40
▁ח	-41
לי	-42
ed	-43
ing	-44
וד	-45
▁את	-46
▁b	-47
om	-48
▁p	-49
▁פ	-50
בר	-51
▁ת	-52
יר	-53
le	-54
▁to	-55
▁an	-56
▁נ	-57
יו	-58
ar	-59
יה	-60
▁o	-61
al	-62
נה	-63
▁m	-64
us	-65
▁ק	-66
▁ג	-67
ent	-68
▁in	-69
יל	-70
ון	-71
▁לא	-72
רא	-73
▁h	-74
▁לה	-75
▁d	-76
וב	-77
די	-78
ion	-79
▁ס	-80
▁על	-81
▁and	-82
as	-83
20	-84
בי	-85
וא	-86
ic	-87
am	-88
▁הא	-89
▁ז	-90
▁of	-91
▁במ	-92
▁ד	-93
▁(	-94
יי	-95
מו	-96
▁"	-97
.\	-98
▁ר	-99
שי	-100
ומ	-101
il	-102
su	-103
▁re	-104
▁n	-105
ro	-106
נים	-107
ין	-108
▁I	-109
et	-110
▁l	-111
▁1	-112
יות	-113
el	-114
ופ	-115
ct	-116
▁הח	-117
יד	-118
שר	-119
וק	-120
▁בא	-121
▁הש	-122
▁is	-123
ment	-124
st	-125
יש	-126
ום	-127
▁y	-128
▁וה	-129
תי	-130
נות	-131
מה	-132
כל	-133
201	-134
טי	-135
com	-136
sue	-137
פר	-138
▁הת	-139
▁צ	-140
ame	-141
לה	-142
▁למ	-143
▁הע	-144
▁שה	-145
ot	-146
▁e	-147
▁מה	-148
ve	-149
ern	-150
בו	-151
▁הי	-152
issue	-153
▁you	-154
▁T	-155
▁g	-156
▁בע	-157
▁for	-158
ch	-159
יק	-160
חר	-161
ow	-162
לא	-163
▁מש	-164
לו	-165
ith	-166
id	-167
נת	-168
▁be	-169
▁-	-170
▁on	-171
ut	-172
▁S	-173
\"	-174
וס	-175
..	-176
im	-177
ly	-178
וג	-179
ername	-180
username	-181
▁בש	-182
רכ	-183
ad	-184
▁ט	-185
יע	-186
▁מא	-187
וח	-188
▁הק	-189
▁עם	-190
ce	-191
מש	-192
▁A	-193
▁אי	-194
▁C	-195
ver	-196
ig	-197
ol	-198
בל	-199
וע	-200
▁הס	-201
ay	-202
▁הפ	-203
un	-204
▁הוא	-205
שה	-206
▁כל	-207
בה	-208
he	-209
טר	-210
▁it	-211
▁יש	-212
יים	-213
ation	-214
▁או	-215
דר	-216
▁וא	-217
▁מת	-218
ag	-219
comment	-220
▁בת	-221
▁wh	-222
est	-223
מת	-224
▁מע	-225
▁that	-226
מי	-227
▁זה	-228
▁מס	-229
▁בה	-230
▁הג	-231
צי	-232
od	-233
00	-234
▁st	-235
נית	-236
ur	-237
▁with	-238
▁לע	-239
זה	-240
▁אח	-241
בע	-242
נס	-243
▁הר	-244
ck	-245
רים	-246
▁P	-247
וי	-248
▁לפ	-249
if	-250
▁הה	-251
שת	-252
▁כי	-253
שים	-254
os	-255
ul	-256
צא	-257
▁שא	-258
וכ	-259
pp	-260
▁M	-261
▁הב	-262
ראש	-263
th	-264
▁ומ	-265
▁לש	-266
▁הכ	-267
ir	-268
ht	-269
▁al	-270
▁גם	-271
▁pro	-272
ers	-273
art	-274
▁this	-275
▁מח	-276
▁בי	-277
ab	-278
רה	-279
ke	-280
מים	-281
ate	-282
▁as	-283
סי	-284
▁לח	-285
▁נו	-286
▁אות	-287
ill	-288
וש	-289
▁הצ	-290
▁con	-291
▁שמ	-292
עות	-293
לק	-294
▁מק	-295
ter	-296
נג	-297
ld	-298
ri	-299
דים	-300
מן	-301
▁בח	-302
ra	-303
בים	-304
em	-305
בות	-306
פי	-307
וו	-308
▁שי	-309
פת	-310
▁B	-311
ere	-312
▁רו	-313
ראל	-314
רג	-315
▁2	-316
▁–	-317
▁לק	-318
בור	-319
אי	-320
_0	-321
▁W	-322
רת	-323
▁מי	-324
▁are	-325
▁וב	-326
▁ha	-327
חק	-328
▁com	-329
out	-330
▁us	-331
ub	-332
ps	-333
לים	-334
▁לי	-335
ess	-336
חת	-337
ירות	-338
2019	-339
ore	-340
▁D	-341
אר	-342
▁היא	-343
▁לב	-344
qu	-345
דה	-346
▁הנ	-347
ונה	-348
חה	-349
▁ex	-350
ect	-351
ew	-352
פה	-353
▁H	-354
כול	-355
ותר	-356
▁בס	-357
כה	-358
צה	-359
▁ול	-360
--	-361
נט	-362
▁בר	-363
בת	-364
▁R	-365
▁היה	-366
▁\	-367
עה	-368
כם	-369
and	-370
our	-371
▁or	-372
▁F	-373
קה	-374
▁הד	-375
rom	-376
ort	-377
▁not	-378
▁v	-379
ירה	-380
מות	-381
עת	-382
▁אל	-383
-1	-384
וז	-385
op	-386
ורה	-387
כת	-388
▁וע	-389
_0:	-390
ould	-391
▁at	-392
ist	-393
▁we	-394
יום	-395
ec	-396
ולם	-397
▁בק	-398
דו	-399
▁מכ	-400
up	-401
וט	-402
▁19	-403
מר	-404
שות	-405
``	-406
את	-407
ure	-408
▁have	-409
▁ch	-410
▁יותר	-411
▁can	-412
פק	-413
//	-414
▁מצ	-415
▁ני	-416
▁r	-417
וצ	-418
oc	-419
▁sh	-420
".	-421
se	-422
age	-423
וני	-424
nd	-425
▁`	-426
לת	-427
פור	-428
▁כא	-429
וף	-430
▁3	-431
▁[	-432
▁G	-433
▁המש	-434
▁L	-435
▁פר	-436
ונים	-437
ain	-438
▁E	-439
▁your	-440
pt	-441
▁de	-442
▁20	-443
ant	-444
סט	-445
חד	-446
חות	-447
lo	-448
ork	-449
▁N	-450
ust	-451
אה	-452
ity	-453
▁הז	-454
בוד	-455
end	-456
▁\"	-457
▁from	-458
סק	-459
▁לת	-460
ack	-461
▁201	-462
יון	-463
ברה	-464
▁אנ	-465
all	-466
▁אפ	-467
ולי	-468
▁וכ	-469
ud	-470
://	-471
um	-472
▁בין	-473
▁אם	-474
נק	-475
ניה	-476
▁The	-477
ang	-478
▁בג	-479
cl	-480
nT	-481
▁se	-482
▁Th	-483
nt	-484
רח	-485
אות	-486
פים	-487
▁do	-488
▁בפ	-489
▁מג	-490
לב	-491
oo	-492
▁was	-493
ase	-494
לות	-495
▁עד	-496
▁will	-497
וך	-498
▁ממ	-499
רון	-500
רב	-501
▁הט	-502
ולה	-503
ive	-504
יא	-505
tps	-506
).	-507
טים	-508
_1	-509
▁בב	-510
▁אבל	-511
▁ad	-512
▁O	-513
res	-514
▁by	-515
▁אני	-516
טה	-517
צע	-518
אים	-519
▁שע	-520
מוד	-521
▁מב	-522
▁בכ	-523
▁סי	-524
),	-525
נד	-526
כות	-527
ילה	-528
ight	-529
▁פע	-530
▁אמ	-531
▁להת	-532
ine	-533
▁רק	-534
ies	-535
▁לג	-536
pl	-537
...	-538
▁פי	-539
דות	-540
▁בד	-541
פות	-542
",	-543
לח	-544
ard	-545
כו	-546
iv	-547
▁but	-548
▁כמו	-549
ally	-550
אל	-551
ome	-552
ורים	-553
)\	-554
."	-555
▁שנ	-556
▁ne	-557
ib	-558
nI	-559
▁ישראל	-560
▁לאחר	-561
▁חי	-562
יתה	-563
▁הם	-564
▁יה	-565
▁אחר	-566
ost	-567
▁up	-568
דם	-569
**	-570
ide	-571
▁j	-572
ile	-573
עים	-574
כן	-575
▁all	-576
ions	-577
▁'	-578
▁לו	-579
רות	-580
▁ידי	-581
▁ab	-582
▁un	-583
▁עצ	-584
▁4	-585
able	-586
▁יכול	-587
ind	-588
ובה	-589
one	-590
▁כך	-591
▁le	-592
▁די	-593
▁כדי	-594
ail	-595
ple	-596
▁שב	-597
▁work	-598
itle	-599
><	-600
▁חד	-601
ak	-602
▁su	-603
▁אחד	-604
פו	-605
start	-606
ff	-607
ated	-608
לט	-609
ונ	-610
▁הראש	-611
▁לד	-612
עי	-613
▁U	-614
חי	-615
▁pl	-616
ast	-617
דת	-618
שו	-619
ell	-620
ליה	-621
rou	-622
so	-623
▁בכל	-624
ry	-625
ברים	-626
▁sp	-627
▁בו	-628
צר	-629
▁נוס	-630
כים	-631
_1:	-632
ap	-633
are	-634
▁לס	-635
ire	-636
ירו	-637
##	-638
ישראל	-639
רך	-640
▁|	-641
זור	-642
▁5	-643
ook	-644
ake	-645
▁"<	-646
▁שלה	-647
קי	-648
▁לצ	-649
▁ולא	-650
רט	-651
av	-652
▁וש	-653
▁cl	-654
ברת	-655
Title	-656
nusername	-657
ראה	-658
ice	-659
יותר	-660
צות	-661
▁בני	-662
סה	-663
▁.	-664
▁has	-665
▁חש	-666
▁so	-667
▁im	-668
או	-669
פט	-670
ich	-671
סת	-672
▁שלו	-673
ach	-674
חים	-675
ex	-676
גר	-677
ime	-678
ורת	-679
▁לכ	-680
orm	-681
ברי	-682
▁במק	-683
▁אך	-684
וצא	-685
▁k	-686
ירים	-687
ial	-688
ithub	-689
▁היו	-690
ode	-691
▁J	-692
ילו	-693
ניות	-694
cc	-695
per	-696
:\	-697
▁int	-698
act	-699
חו	-700
iz	-701
פל	-702
▁ראש	-703
▁מד	-704
גה	-705
ass	-706
▁בנו	-707
▁go	-708
▁en	-709
▁he	-710
לך	-711
דול	-712
▁me	-713
▁בית	-714
חש	-715
▁עוד	-716
og	-717
▁:	-718
github	-719
▁זו	-720
ix	-721
▁if	-722
▁שלא	-723
▁,	-724
ורי	-725
שא	-726
▁app	-727
▁out	-728
ue	-729
▁@	-730
https	-731
חס	-732
0.	-733
בא	-734
ומר	-735
▁cont	-736
ישה	-737
צת	-738
▁my	-739
▁הבי	-740
מע	-741
חנו	-742
ear	-743
ריך	-744
vers	-745
?\	-746
▁אותו	-747
ac	-748
▁בצ	-749
▁add	-750
קר	-751
```	-752
של	-753
▁li	-754
der	-755
כי	-756
גי	-757
צוע	-758
ign	-759
▁אז	-760
רץ	-761
קים	-762
ink	-763
ug	-764
ירת	-765
ite	-766
▁כת	-767
▁המק	-768
פשר	-769
יצ	-770
her	-771
ip	-772
▁שק	-773
▁ות	-774
מצ	-775
▁לפני	-776
תר	-777
▁בט	-778
▁ביותר	-779
גיע	-780
כון	-781
fer	-782
▁רי	-783
▁בשנת	-784
▁V	-785
ild	-786
▁more	-787
▁וג	-788
מיד	-789
רכת	-790
ep	-791
▁זאת	-792
יין	-793
▁אין	-794
ong	-795
ont	-796
▁תק	-797
▁מפ	-798
▁האח	-799
▁שלי	-800
▁שני	-801
▁נת	-802
du	-803
▁<	-804
▁one	-805
▁הזה	-806
▁new	-807
very	-808
int	-809
ia	-810
ace	-811
רכז	-812
ינו	-813
▁שם	-814
כנ	-815
ank	-816
כש	-817
ורך	-818
מד	-819
form	-820
קות	-821
ולוג	-822
צים	-823
מא	-824
בין	-825
ינ	-826
port	-827
ction	-828
▁which	-829
gh	-830
ילים	-831
מצא	-832
ll	-833
▁להיות	-834
מית	-835
▁get	-836
▁any	-837
▁אר	-838
▁שת	-839
בוע	-840
▁אשר	-841
ניים	-842
▁comp	-843
ge	-844
ans	-845
צל	-846
בודה	-847
וות	-848
גד	-849
▁200	-850
ולים	-851
▁when	-852
טח	-853
▁6	-854
19	-855
▁מז	-856
ילות	-857
▁chang	-858
ary	-859
ick	-860
ופן	-861
▁המע	-862
▁like	-863
▁כבר	-864
פרי	-865
▁במה	-866
▁המת	-867
lease	-868
▁עלי	-869
1.	-870
ציה	-871
▁some	-872
ther	-873
ject	-874
▁need	-875
nA	-876
▁כש	-877
▁וח	-878
▁אחרי	-879
▁נית	-880
▁מאוד	-881
▁St	-882
ens	-883
ance	-884
▁would	-885
▁מספר	-886
▁Y	-887
](	-888
▁use	-889
יס	-890
סף	-891
לית	-892
ורות	-893
ווה	-894
▁In	-895
ודה	-896
▁היום	-897
nThe	-898
>\	-899
.[	-900
ומי	-901
yp	-902
ult	-903
▁מדי	-904
vel	-905
----	-906
ביב	-907
▁חלק	-908
▁השי	-909
▁there	-910
▁יע	-911
ous	-912
▁כמה	-913
ence	-914
▁נע	-915
ph	-916
▁also	-917
▁about	-918
מוש	-919
▁our	-920
פע	-921
▁qu	-922
זר	-923
סים	-924
וה	-925
,\	-926
▁tr	-927
ברות	-928
2.	-929
יתי	-930
רוש	-931
▁they	-932
▁their	-933
▁אלי	-934
ose	-935
אן	-936
פון	-937
בד	-938
ber	-939
ליק	-940
טו	-941
▁בז	-942
ord	-943
own	-944
▁time	-945
רק	-946
osed	-947
▁טי	-948
▁man	-949
▁הכל	-950
▁עו	-951
▁=	-952
▁שהוא	-953
▁מט	-954
גל	-955
ish	-956
▁לנו	-957
▁החברה	-958
▁וי	-959
iew	-960
▁should	-961
ations	-962
▁ולה	-963
▁טוב	-964
```\	-965
פס	-966
reat	-967
21	-968
erv	-969
▁It	-970
▁K	-971
low	-972
ידה	-973
▁רא	-974
▁7	-975
ark	-976
ייס	-977
▁ונ	-978
▁שכ	-979
▁הפר	-980
ילת	-981
▁הנו	-982
▁במש	-983
▁/	-984
רוב	-985
▁0	-986
....	-987
▁בתח	-988
▁ממש	-989
▁למע	-990
▁test	-991
ופה	-992
▁גר	-993
▁comm	-994
מק	-995
▁לכל	-996
ror	-997
ברית	-998
וכל	-999
▁עבור	-1000
▁כן	-1001
▁בן	-1002
▁This	-1003
ריק	-1004
▁נפ	-1005
▁החד	-1006
▁התק	-1007
תיים	-1008
sp	-1009
▁fe	-1010
▁per	-1011
ידע	-1012
ie	-1013
וחות	-1014
ree	-1015
מל	-1016
ונות	-1017
גים	-1018
ely	-1019
חל	-1020
▁just	-1021
ition	-1022
יעה	-1023
▁8	-1024
cri	-1025
ory	-1026
ound	-1027
▁אלא	-1028
ings	-1029
ull	-1030
מבר	-1031
ומה	-1032
▁קט	-1033
ove	-1034
▁ev	-1035
ress	-1036
▁pre	-1037
▁כאשר	-1038
▁במס	-1039
גע	-1040
טרה	-1041
▁כול	-1042
ליון	-1043
▁requ	-1044
▁המס	-1045
ays	-1046
ובות	-1047
דרך	-1048
▁נק	-1049
▁inst	-1050
ער	-1051
▁המח	-1052
▁יד	-1053
וסי	-1054
▁dis	-1055
ov	-1056
נם	-1057
ents	-1058
nTh	-1059
▁what	-1060
גת	-1061
בק	-1062
ages	-1063
pro	-1064
עד	-1065
▁ar	-1066
lic	-1067
פול	-1068
▁ht	-1069
▁שנים	-1070
aus	-1071
כר	-1072
▁נש	-1073
▁אחת	-1074
▁other	-1075
ng	-1076
▁בלי	-1077
▁הל	-1078
רום	-1079
▁kn	-1080
▁hel	-1081
דור	-1082
יקה	-1083
▁לר	-1084
ount	-1085
10	-1086
יוחד	-1087
-2	-1088
ומים	-1089
▁10	-1090
▁האי	-1091
▁יום	-1092
ata	-1093
▁ניתן	-1094
ning	-1095
▁מר	-1096
וץ	-1097
עם	-1098
דינה	-1099
uild	-1100
▁הרו	-1101
nW	-1102
▁הייתה	-1103
ft	-1104
▁been	-1105
ודי	-1106
תה	-1107
ניין	-1108
▁באופן	-1109
מס	-1110
▁שלנו	-1111
30	-1112
כנס	-1113
eth	-1114
צב	-1115
50	-1116
▁them	-1117
▁Ch	-1118
▁תח	-1119
וסט	-1120
▁part	-1121
▁שיש	-1122
▁issue	-1123
ef	-1124
מור	-1125
pport	-1126
אם	-1127
▁ברי	-1128
▁te	-1129
gr	-1130
▁how	-1131
▁אנחנו	-1132
▁החל	-1133
▁בבית	-1134
ריה	-1135
▁אב	-1136
row	-1137
000	-1138
3.	-1139
▁לפי	-1140
▁ללא	-1141
\\	-1142
▁אפשר	-1143
טת	-1144
▁יצ	-1145
▁לט	-1146
▁השני	-1147
דובר	-1148
▁פת	-1149
מין	-1150
▁look	-1151
▁am	-1152
▁•	-1153
▁des	-1154
רונות	-1155
נון	-1156
closed	-1157
▁לכם	-1158
יב	-1159
▁בישראל	-1160
▁יל	-1161
!\	-1162
clud	-1163
▁no	-1164
פקיד	-1165
קס	-1166
תם	-1167
▁into	-1168
פש	-1169
▁9	-1170
▁הראשון	-1171
ting	-1172
irst	-1173
ברו	-1174
▁sc	-1175
▁דבר	-1176
▁משת	-1177
▁over	-1178
▁only	-1179
▁ag	-1180
▁אור	-1181
סטי	-1182
▁לנ	-1183
-19	-1184
▁בל	-1185
ביר	-1186
▁sa	-1187
שרד	-1188
ob	-1189
יקר	-1190
▁שנה	-1191
ond	-1192
▁vers	-1193
תק	-1194
צו	-1195
▁Wh	-1196
▁במהלך	-1197
▁הלי	-1198
נן	-1199
וריה	-1200
▁year	-1201
▁אף	-1202
▁אותה	-1203
▁We	-1204
].	-1205
▁make	-1206
▁הרבה	-1207
te	-1208
ors	-1209
ical	-1210
▁פרו	-1211
io	-1212
▁who	-1213
▁עוב	-1214
▁18	-1215
▁set	-1216
fter	-1217
▁גדול	-1218
ption	-1219
▁תה	-1220
enc	-1221
▁איך	-1222
ru	-1223
בוה	-1224
פרס	-1225
▁וק	-1226
▁משפ	-1227
▁נה	-1228
▁does	-1229
▁צי	-1230
2:	-1231
▁{	-1232
nS	-1233
ble	-1234
צח	-1235
▁תש	-1236
▁שח	-1237
▁אמר	-1238
▁סט	-1239
ments	-1240
▁חברת	-1241
▁see	-1242
▁הספר	-1243
מון	-1244
▁https	-1245
ודות	-1246
▁הסי	-1247
לם	-1248
▁אלו	-1249
▁תג	-1250
▁מנ	-1251
▁ספר	-1252
▁#	-1253
▁כאן	-1254
▁run	-1255
get	-1256
▁להם	-1257
קו	-1258
ומות	-1259
ext	-1260
▁יח	-1261
',	-1262
ואר	-1263
▁איש	-1264
ואה	-1265
we	-1266
ool	-1267
▁fun	-1268
▁לעשות	-1269
▁using	-1270
גרת	-1271
▁תוכ	-1272
▁קר	-1273
▁rec	-1274
▁אס	-1275
▁הצי	-1276
11	-1277
▁תע	-1278
ual	-1279
js	-1280
מעות	-1281
▁העולם	-1282
▁תל	-1283
רושלים	-1284
▁האם	-1285
▁ro	-1286
▁מוצ	-1287
קב	-1288
ווי	-1289
כנולוג	-1290
קת	-1291
▁prov	-1292
▁הופ	-1293
ature	-1294
מצעות	-1295
▁במקום	-1296
▁שלהם	-1297
▁זמן	-1298
ts	-1299
▁its	-1300
▁want	-1301
ause	-1302
ade	-1303
שתמש	-1304
▁אותם	-1305
▁אדם	-1306
anks	-1307
atch	-1308
גו	-1309
▁now	-1310
▁משה	-1311
▁רבים	-1312
▁]	-1313
ולר	-1314
▁שבו	-1315
▁נמצא	-1316
בית	-1317
▁help	-1318
lect	-1319
מונה	-1320
טא	-1321
▁acc	-1322
▁המא	-1323
▁cre	-1324
▁חיי	-1325
25	-1326
קד	-1327
▁מול	-1328
▁know	-1329
ודש	-1330
▁הוד	-1331
04	-1332
▁עדי	-1333
▁PR	-1334
error	-1335
ראות	-1336
▁צריך	-1337
▁באמצעות	-1338
▁first	-1339
▁col	-1340
שם	-1341
גות	-1342
;\	-1343
▁חז	-1344
▁וס	-1345
נוע	-1346
▁כה	-1347
גור	-1348
▁version	-1349
urn	-1350
▁אתה	-1351
ype	-1352
view	-1353
▁includ	-1354
▁מלא	-1355
\":	-1356
בח	-1357
ener	-1358
▁שלכם	-1359
==	-1360
ולות	-1361
heck	-1362
▁מל	-1363
ולד	-1364
▁כמ	-1365
▁אד	-1366
▁off	-1367
▁רח	-1368
יהם	-1369
▁וגם	-1370
ible	-1371
וקר	-1372
fore	-1373
▁אביב	-1374
▁could	-1375
▁think	-1376
▁his	-1377
▁tra	-1378
▁fol	-1379
▁פש	-1380
ific	-1381
▁אירו	-1382
▁רב	-1383
▁דרך	-1384
▁מנה	-1385
▁נגד	-1386
▁אתם	-1387
ates	-1388
yst	-1389
con	-1390
▁אנשים	-1391
▁pe	-1392
be	-1393
▁back	-1394
dd	-1395
user	-1396
ath	-1397
ודים	-1398
שק	-1399
▁הדי	-1400
▁ית	-1401
זו	-1402
▁i	-1403
גן	-1404
גם	-1405
▁קרי	-1406
▁הו	-1407
__	-1408
ראלי	-1409
▁שר	-1410
▁הרי	-1411
▁act	-1412
טור	-1413
▁יוד	-1414
ne	-1415
▁חיים	-1416
משלה	-1417
▁ke	-1418
urre	-1419
▁פרס	-1420
ותו	-1421
▁than	-1422
▁em	-1423
▁bet	-1424
▁יהיה	-1425
▁Re	-1426
זי	-1427
26	-1428
ful	-1429
בוק	-1430
▁חדש	-1431
4.	-1432
▁קור	-1433
▁were	-1434
טל	-1435
▁פרי	-1436
▁פור	-1437
ater	-1438
sh	-1439
▁may	-1440
גש	-1441
▁ועוד	-1442
▁fix	-1443
▁had	-1444
▁בעולם	-1445
igh	-1446
▁שירות	-1447
18	-1448
▁code	-1449
▁don	-1450
wo	-1451
▁היי	-1452
ring	-1453
▁way	-1454
▁rem	-1455
▁הרב	-1456
▁mod	-1457
מח	-1458
נוי	-1459
▁dif	-1460
▁בנ	-1461
▁דו	-1462
▁מוע	-1463
▁מיליון	-1464
▁אלה	-1465
oint	-1466
pen	-1467
▁השת	-1468
▁בהת	-1469
▁אופ	-1470
כתב	-1471
▁להע	-1472
בחר	-1473
oth	-1474
▁--	-1475
▁support	-1476
▁האמ	-1477
15	-1478
▁then	-1479
▁בלב	-1480
ient	-1481
בוצה	-1482
▁exp	-1483
12	-1484
read	-1485
!!	-1486
▁גד	-1487
▁כשה	-1488
יתוח	-1489
200	-1490
ביל	-1491
16	-1492
עו	-1493
▁לקבל	-1494
▁קי	-1495
ystem	-1496
▁רכ	-1497
▁inter	-1498
ועל	-1499
les	-1500
▁עי	-1501
▁הן	-1502
שרה	-1503
▁אנו	-1504
rough	-1505
iss	-1506
▁לז	-1507
oss	-1508
▁בסי	-1509
80	-1510
ss	-1511
▁here	-1512
▁גור	-1513
ough	-1514
▁במע	-1515
ציות	-1516
ריות	-1517
דרה	-1518
ious	-1519
▁well	-1520
but	-1521
▁ind	-1522
ise	-1523
▁val	-1524
ating	-1525
▁res	-1526
round	-1527
▁הכי	-1528
▁conf	-1529
▁לך	-1530
צור	-1531
▁הברית	-1532
▁def	-1533
▁מור	-1534
▁משחק	-1535
תו	-1536
▁If	-1537
nC	-1538
▁error	-1539
▁היש	-1540
elf	-1541
ash	-1542
▁שש	-1543
ee	-1544
▁spec	-1545
▁מדובר	-1546
velop	-1547
ליך	-1548
▁these	-1549
חז	-1550
▁נוספים	-1551
14	-1552
משי	-1553
טות	-1554
wn	-1555
כשיו	-1556
ובי	-1557
22	-1558
▁הגדול	-1559
▁every	-1560
וגל	-1561
טיים	-1562
,000	-1563
▁פשוט	-1564
▁start	-1565
▁חוק	-1566
▁1.	-1567
py	-1568
▁נא	-1569
ople	-1570
לל	-1571
זרח	-1572
ows	-1573
anc	-1574
>"	-1575
▁upd	-1576
▁להי	-1577
פא	-1578
rit	-1579
blem	-1580
טית	-1581
ert	-1582
ילום	-1583
▁אה	-1584
משך	-1585
ביא	-1586
▁מוד	-1587
▁ביו	-1588
▁גבוה	-1589
▁למש	-1590
arch	-1591
קל	-1592
▁אש	-1593
נר	-1594
▁מתח	-1595
ons	-1596
urrent	-1597
▁bec	-1598
שיא	-1599
▁after	-1600
רוס	-1601
▁file	-1602
cont	-1603
שב	-1604
17	-1605
ניי	-1606
cre	-1607
app	-1608
▁עמ	-1609
▁המדינה	-1610
▁שונים	-1611
-4	-1612
ילדים	-1613
mer	-1614
▁serv	-1615
▁co	-1616
ric	-1617
▁under	-1618
▁change	-1619
רכה	-1620
▁לל	-1621
נא	-1622
פתח	-1623
▁through	-1624
▁15	-1625
▁good	-1626
ומת	-1627
83	-1628
▁הראשונה	-1629
▁שהם	-1630
▁*	-1631
▁ret	-1632
ys	-1633
▁שבה	-1634
▁loc	-1635
▁מערכת	-1636
▁build	-1637
▁אינ	-1638
ובן	-1639
▁קו	-1640
קבות	-1641
▁ליי	-1642
רכות	-1643
13	-1644
מפ	-1645
2013	-1646
ased	-1647
▁call	-1648
-3	-1649
▁where	-1650
▁רג	-1651
▁מנת	-1652
▁att	-1653
▁בהם	-1654
▁produ	-1655
▁הול	-1656
▁התח	-1657
יוון	-1658
▁חשוב	-1659
רגון	-1660
▁199	-1661
▁פעם	-1662
de	-1663
aster	-1664
ty	-1665
▁עסק	-1666
▁read	-1667
▁התע	-1668
day	-1669
חשב	-1670
▁ומש	-1671
פיק	-1672
▁You	-1673
▁ניס	-1674
▁אית	-1675
put	-1676
aking	-1677
▁reg	-1678
▁problem	-1679
▁rel	-1680
▁follow	-1681
▁הור	-1682
ian	-1683
▁most	-1684
▁העיר	-1685
אני	-1686
▁אחרים	-1687
▁הכנס	-1688
▁והוא	-1689
▁people	-1690
▁used	-1691
▁ביק	-1692
▁הברי	-1693
▁לשי	-1694
▁מוכ	-1695
רכים	-1696
▁שהיא	-1697
▁קוד	-1698
▁והת	-1699
▁חס	-1700
בעה	-1701
ליים	-1702
שית	-1703
▁מן	-1704
sul	-1705
▁תא	-1706
וצר	-1707
▁משמעות	-1708
טחון	-1709
lob	-1710
▁check	-1711
sues	-1712
cess	-1713
ility	-1714
▁very	-1715
▁her	-1716
▁דולר	-1717
▁two	-1718
▁צרי	-1719
▁fil	-1720
irect	-1721
▁מקום	-1722
▁ומת	-1723
ox	-1724
רמ	-1725
▁מיי	-1726
▁בתי	-1727
ax	-1728
▁באי	-1729
▁dep	-1730
▁because	-1731
ock	-1732
▁בשי	-1733
ood	-1734
▁בתחום	-1735
work	-1736
ניס	-1737
▁same	-1738
▁כח	-1739
old	-1740
▁הממשלה	-1741
▁שלך	-1742
ize	-1743
▁נס	-1744
▁ופ	-1745
64	-1746
▁find	-1747
5.	-1748
▁גל	-1749
▁sub	-1750
▁יחד	-1751
▁ph	-1752
▁הגיע	-1753
ופר	-1754
▁ac	-1755
קט	-1756
▁som	-1757
▁ארו	-1758
▁differ	-1759
▁למה	-1760
▁כלל	-1761
רונה	-1762
▁ואת	-1763
ample	-1764
▁שהת	-1765
▁מוס	-1766
▁project	-1767
ומית	-1768
▁עדיין	-1769
שרות	-1770
▁במח	-1771
צד	-1772
nc	-1773
_2:	-1774
7.	-1775
▁sim	-1776
ied	-1777
az	-1778
▁gu	-1779
וצאה	-1780
ular	-1781
▁חוש	-1782
ribut	-1783
▁inv	-1784
uch	-1785
▁av	-1786
זיה	-1787
▁{\	-1788
▁ההת	-1789
לון	-1790
ities	-1791
▁וכן	-1792
ברסי	-1793
▁רוצה	-1794
▁תוך	-1795
▁התי	-1796
▁did	-1797
▁$	-1798
רד	-1799
וקה	-1800
▁וד	-1801
▁שתי	-1802
60	-1803
▁הפע	-1804
▁רבי	-1805
▁doc	-1806
ead	-1807
חרות	-1808
formation	-1809
▁במסגרת	-1810
▁wor	-1811
▁ext	-1812
▁מוז	-1813
mit	-1814
מנו	-1815
▁pr	-1816
▁קבו	-1817
ותה	-1818
ek	-1819
▁פני	-1820
▁try	-1821
▁עבודה	-1822
נחנו	-1823
▁המוע	-1824
▁בלבד	-1825
▁ביום	-1826
▁Pro	-1827
▁עצמו	-1828
▁הלא	-1829
ok	-1830
▁מלח	-1831
גיש	-1832
▁מתוך	-1833
יעים	-1834
▁מאז	-1835
ices	-1836
▁ברח	-1837
ument	-1838
▁sec	-1839
▁השנה	-1840
ופת	-1841
▁מכל	-1842
nF	-1843
▁ent	-1844
וכלו	-1845
6.	-1846
מוך	-1847
מנ	-1848
ואי	-1849
רוא	-1850
▁כולל	-1851
--------	-1852
▁rep	-1853
erm	-1854
ראי	-1855
בט	-1856
iel	-1857
▁ובע	-1858
ציא	-1859
דש	-1860
▁רע	-1861
▁עליה	-1862
▁בעקבות	-1863
▁מטר	-1864
▁כתב	-1865
▁request	-1866
-0	-1867
ward	-1868
▁קשה	-1869
ract	-1870
שוב	-1871
▁יי	-1872
▁br	-1873
70	-1874
▁החדש	-1875
▁אינו	-1876
▁מתק	-1877
▁בדי	-1878
מוק	-1879
▁down	-1880
=\"	-1881
ליות	-1882
▁המשפט	-1883
aw	-1884
▁before	-1885
▁מוש	-1886
▁ועל	-1887
▁השלי	-1888
ually	-1889
▁exper	-1890
▁הבית	-1891
▁בתק	-1892
▁להצ	-1893
url	-1894
▁sol	-1895
▁aut	-1896
ected	-1897
nP	-1898
nB	-1899
▁המשפ	-1900
▁בשל	-1901
▁}	-1902
▁בתוך	-1903
nH	-1904
23	-1905
40	-1906
▁ser	-1907
ince	-1908
▁still	-1909
ריים	-1910
▁מידע	-1911
פליק	-1912
▁great	-1913
נשים	-1914
xt	-1915
ative	-1916
▁שיע	-1917
▁Un	-1918
▁בעלי	-1919
▁data	-1920
▁עליו	-1921
▁פל	-1922
▁פחות	-1923
נאי	-1924
▁ברו	-1925
▁נראה	-1926
מעט	-1927
בול	-1928
ily	-1929
▁dec	-1930
▁למצ	-1931
▁list	-1932
רוץ	-1933
▁חל	-1934
▁many	-1935
▁הרכ	-1936
▁sm	-1937
▁even	-1938
▁2.	-1939
-9	-1940
ems	-1941
▁רש	-1942
רבות	-1943
ובת	-1944
▁באתר	-1945
פיה	-1946
רבי	-1947
▁נד	-1948
▁בנוסף	-1949
▁בזמן	-1950
מנים	-1951
▁סוג	-1952
▁בדרך	-1953
its	-1954
▁לראות	-1955
▁בצורה	-1956
מנות	-1957
סל	-1958
▁&	-1959
load	-1960
על	-1961
▁right	-1962
any	-1963
לוח	-1964
ackage	-1965
▁קל	-1966
▁למו	-1967
▁**	-1968
▁בראש	-1969
eb	-1970
▁קול	-1971
דרת	-1972
ניק	-1973
▁האירו	-1974
ופי	-1975
ser	-1976
▁שהיה	-1977
▁עכשיו	-1978
שורת	-1979
▁אומ	-1980
ייסבוק	-1981
▁יצא	-1982
ביע	-1983
▁Com	-1984
▁12	-1985
טרנט	-1986
St	-1987
▁ob	-1988
als	-1989
יוק	-1990
()	-1991
▁אולי	-1992
▁gener	-1993
ik	-1994
▁קשר	-1995
כס	-1996
8.	-1997
הל	-1998
other	-1999
▁feature	-2000
▁שזה	-2001
נטי	-2002
▁open	-2003
▁ass	-2004
שרת	-2005
).\	-2006
▁בעל	-2007
▁bel	-2008
▁min	-2009
▁מקצוע	-2010
▁much	-2011
▁changes	-2012
▁שמע	-2013
פורט	-2014
▁end	-2015
cript	-2016
▁שאני	-2017
בש	-2018
ustom	-2019
ted	-2020
▁עומ	-2021
גון	-2022
▁det	-2023
▁מרכז	-2024
▁form	-2025
led	-2026
מם	-2027
▁stud	-2028
▁במיוחד	-2029
▁בעיקר	-2030
iness	-2031
▁sure	-2032
▁אג	-2033
▁num	-2034
▁רבות	-2035
▁own	-2036
▁מכן	-2037
כויות	-2038
▁נכון	-2039
▁אצל	-2040
לין	-2041
▁being	-2042
זק	-2043
חור	-2044
▁ילדים	-2045
24	-2046
###	-2047
ets	-2048
▁high	-2049
▁long	-2050
ource	-2051
▁חברות	-2052
▁הזמן	-2053
▁אומר	-2054
רגע	-2055
וסף	-2056
▁play	-2057
▁להכ	-2058
▁שנת	-2059
nM	-2060
ליח	-2061
▁קיי	-2062
אס	-2063
▁בארץ	-2064
ml	-2065
▁ומע	-2066
▁נח	-2067
▁נוסף	-2068
▁He	-2069
ider	-2070
ield	-2071
ודית	-2072
▁information	-2073
nThis	-2074
▁יכולים	-2075
ics	-2076
▁take	-2077
▁כד	-2078
שימה	-2079
▁hand	-2080
▁develop	-2081
ines	-2082
▁משרד	-2083
ner	-2084
▁current	-2085
ife	-2086
ave	-2087
▁שוב	-2088
▁להפ	-2089
וחים	-2090
שיים	-2091
'.	-2092
▁שמו	-2093
▁הבא	-2094
▁צע	-2095
▁לראש	-2096
▁said	-2097
ever	-2098
▁גי	-2099
▁שיו	-2100
▁אפילו	-2101
▁fin	-2102
ניהם	-2103
▁שימוש	-2104
▁again	-2105
▁וז	-2106
▁מו	-2107
ience	-2108
▁Sh	-2109
▁שפ	-2110
▁העבודה	-2111
ופים	-2112
▁16	-2113
uring	-2114
-8	-2115
▁תכ	-2116
olog	-2117
▁ראשון	-2118
▁cor	-2119
▁למרות	-2120
org	-2121
ליט	-2122
▁different	-2123
יצוב	-2124
▁יור	-2125
ven	-2126
line	-2127
........	-2128
▁לבית	-2129
▁pass	-2130
▁הנה	-2131
▁trans	-2132
▁cons	-2133
nO	-2134
אב	-2135
▁bus	-2136
▁var	-2137
▁Cl	-2138
tle	-2139
▁בשם	-2140
ify	-2141
ection	-2142
▁המצ	-2143
מיים	-2144
▁fl	-2145
▁לכך	-2146
ething	-2147
▁17	-2148
▁בעצ	-2149
▁מיק	-2150
▁found	-2151
יוס	-2152
pr	-2153
▁line	-2154
▁comple	-2155
27	-2156
ower	-2157
▁מעט	-2158
פן	-2159
ins	-2160
▁ביט	-2161
▁ומה	-2162
ier	-2163
מול	-2164
טרי	-2165
**\	-2166
ational	-2167
▁such	-2168
29	-2169
▁Al	-2170
co	-2171
gram	-2172
ניהו	-2173
▁ra	-2174
▁כס	-2175
נהל	-2176
▁require	-2177
▁המד	-2178
וקים	-2179
רש	-2180
▁sch	-2181
▁happ	-2182
וצאות	-2183
ange	-2184
▁העוב	-2185
▁מיו	-2186
▁years	-2187
▁post	-2188
▁חוד	-2189
▁install	-2190
▁13	-2191
▁system	-2192
▁יו	-2193
▁המרכז	-2194
רטי	-2195
בלת	-2196
▁משתמש	-2197
▁המשחק	-2198
ציג	-2199
▁14	-2200
קום	-2201
לווי	-2202
זם	-2203
▁שמת	-2204
ידות	-2205
\",	-2206
▁רפ	-2207
arn	-2208
oy	-2209
OS	-2210
ule	-2211
▁שית	-2212
ראת	-2213
▁שנות	-2214
▁תחת	-2215
▁ולכן	-2216
▁web	-2217
▁function	-2218
phone	-2219
ution	-2220
ורג	-2221
▁made	-2222
▁לפע	-2223
ator	-2224
-11	-2225
65	-2226
▁משהו	-2227
nWh	-2228
▁תמיד	-2229
▁ומו	-2230
▁להגיע	-2231
1]	-2232
ault	-2233
▁הני	-2234
בלים	-2235
rop	-2236
נסי	-2237
▁pres	-2238
▁שבע	-2239
▁ירושלים	-2240
89	-2241
▁דא	-2242
▁האחרון	-2243
ww	-2244
טע	-2245
:00	-2246
▁poss	-2247
▁בעת	-2248
▁כפי	-2249
משיך	-2250
▁צה	-2251
▁eff	-2252
▁each	-2253
רכי	-2254
erson	-2255
בוס	-2256
מונות	-2257
ger	-2258
ruct	-2259
akes	-2260
▁חבר	-2261
log	-2262
ident	-2263
▁ובי	-2264
The	-2265
▁resul	-2266
▁אולם	-2267
not	-2268
▁import	-2269
▁הציבור	-2270
▁תי	-2271
▁ed	-2272
קור	-2273
גוד	-2274
▁class	-2275
!--	-2276
▁?	-2277
וניברסי	-2278
▁רוצים	-2279
▁וזה	-2280
ior	-2281
▁ועד	-2282
▁כנ	-2283
ving	-2284
▁אותי	-2285
ved	-2286
tp	-2287
▁מאת	-2288
▁Is	-2289
▁working	-2290
ייע	-2291
▁pub	-2292
סון	-2293
1,	-2294
ילד	-2295
▁cle	-2296
▁beh	-2297
▁שאין	-2298
ason	-2299
סם	-2300
▁אבי	-2301
▁resp	-2302
שרים	-2303
▁בעי	-2304
ידו	-2305
▁last	-2306
els	-2307
▁מומ	-2308
בצע	-2309
▁something	-2310
▁process	-2311
▁ובה	-2312
▁while	-2313
▁הטי	-2314
ails	-2315
▁הקור	-2316
▁לבי	-2317
▁30	-2318
▁And	-2319
▁דקות	-2320
▁הסרט	-2321
▁טע	-2322
▁הארץ	-2323
▁באר	-2324
וסיף	-2325
▁מהם	-2326
▁וכל	-2327
▁מוג	-2328
▁טר	-2329
air	-2330
תח	-2331
▁למצוא	-2332
▁design	-2333
▁בעיר	-2334
▁best	-2335
▁האמריק	-2336
זרת	-2337
▁ור	-2338
▁בפר	-2339
▁שצ	-2340
▁please	-2341
ספר	-2342
▁name	-2343
ON	-2344
▁קלי	-2345
▁כיום	-2346
▁הישראל	-2347
▁באמת	-2348
▁mark	-2349
lib	-2350
▁הישראלי	-2351
רבית	-2352
nD	-2353
▁החיים	-2354
בלה	-2355
▁עש	-2356
▁פס	-2357
▁eas	-2358
ten	-2359
▁רוב	-2360
ופט	-2361
▁אוה	-2362
▁ימים	-2363
test	-2364
mod	-2365
▁log	-2366
▁רצ	-2367
▁תגובות	-2368
▁day	-2369
thon	-2370
▁התא	-2371
-5	-2372
▁those	-2373
▁mon	-2374
▁שעות	-2375
▁צילום	-2376
▁show	-2377
▁week	-2378
וקא	-2379
▁כלי	-2380
▁קצת	-2381
▁החש	-2382
▁היתה	-2383
▁להג	-2384
▁כמעט	-2385
▁מרו	-2386
way	-2387
▁...	-2388
▁gr	-2389
▁she	-2390
▁(19	-2391
99	-2392
חרים	-2393
`\	-2394
ethod	-2395
nN	-2396
▁report	-2397
▁שכל	-2398
▁direct	-2399
▁טל	-2400
▁Add	-2401
▁really	-2402
ailable	-2403
content	-2404
▁mem	-2405
▁מוק	-2406
ict	-2407
▁An	-2408
amp	-2409
ality	-2410
נגלית	-2411
▁השבוע	-2412
▁המי	-2413
to	-2414
כנולוגיה	-2415
ER	-2416
▁השנים	-2417
28	-2418
▁ספ	-2419
IN	-2420
צרים	-2421
ונג	-2422
rc	-2423
מרי	-2424
▁הזו	-2425
▁דה	-2426
▁והש	-2427
▁vis	-2428
▁שו	-2429
vent	-2430
▁מופ	-2431
▁main	-2432
uff	-2433
מך	-2434
▁+	-2435
▁במשך	-2436
וויר	-2437
.<	-2438
▁להש	-2439
erg	-2440
▁ויש	-2441
נגד	-2442
▁point	-2443
lish	-2444
ask	-2445
▁שמש	-2446
כשיר	-2447
לול	-2448
▁אליה	-2449
▁link	-2450
▁case	-2451
כור	-2452
ייחס	-2453
-20	-2454
33	-2455
גוע	-2456
▁באזור	-2457
▁וצ	-2458
gle	-2459
nIn	-2460
רכו	-2461
וכנית	-2462
ited	-2463
ton	-2464
▁סרט	-2465
▁both	-2466
▁ואי	-2467
▁המה	-2468
וביל	-2469
טרים	-2470
alth	-2471
▁השנייה	-2472
▁למי	-2473
בנה	-2474
▁custom	-2475
▁2019	-2476
▁3.	-2477
▁יא	-2478
chn	-2479
▁too	-2480
דון	-2481
שט	-2482
▁par	-2483
unity	-2484
דל	-2485
▁return	-2486
45	-2487
▁Thanks	-2488
▁דור	-2489
ames	-2490
aut	-2491
יסט	-2492
▁lo	-2493
▁למשל	-2494
75	-2495
thing	-2496
af	-2497
דן	-2498
נלא	-2499
▁car	-2500
וחה	-2501
מנה	-2502
alk	-2503
ways	-2504
\"\	-2505
man	-2506
נדר	-2507
nR	-2508
▁11	-2509
טב	-2510
lock	-2511
▁יחס	-2512
▁אחרת	-2513
ined	-2514
סות	-2515
▁החי	-2516
▁בעוד	-2517
▁החוק	-2518
▁שונות	-2519
▁חדשות	-2520
▁לדעת	-2521
▁הרא	-2522
לחמה	-2523
▁בגלל	-2524
▁דיו	-2525
▁בפני	-2526
▁Ex	-2527
blob	-2528
▁str	-2529
▁מרג	-2530
▁הפס	-2531
▁שחק	-2532
oot	-2533
▁proper	-2534
uc	-2535
cept	-2536
בן	-2537
▁מיוחד	-2538
35	-2539
▁בנושא	-2540
▁דברים	-2541
▁לצד	-2542
▁פה	-2543
sc	-2544
86	-2545
יקט	-2546
▁הית	-2547
gan	-2548
\",\	-2549
In	-2550
▁tri	-2551
▁גיל	-2552
אית	-2553
▁לפר	-2554
▁example	-2555
red	-2556
ah	-2557
חוד	-2558
▁For	-2559
ובים	-2560
▁available	-2561
טרו	-2562
וגוסט	-2563
רן	-2564
▁בדיוק	-2565
loy	-2566
▁around	-2567
▁מסת	-2568
▁נתניהו	-2569
▁דוד	-2570
לוט	-2571
בס	-2572
▁fam	-2573
▁2018	-2574
roup	-2575
▁להס	-2576
▁שג	-2577
▁Ar	-2578
▁business	-2579
זון	-2580
ery	-2581
ava	-2582
▁able	-2583
▁100	-2584
▁יק	-2585
ives	-2586
▁art	-2587
נטים	-2588
זל	-2589
▁והא	-2590
לוויזיה	-2591
▁האדם	-2592
2,	-2593
▁היח	-2594
ren	-2595
▁נשים	-2596
בורה	-2597
▁X	-2598
▁בינו	-2599
▁provid	-2600
plement	-2601
PI	-2602
▁והמ	-2603
טיבי	-2604
יונות	-2605
84	-2606
39	-2607
▁bl	-2608
סקי	-2609
ale	-2610
▁לבין	-2611
▁כזה	-2612
כב	-2613
▁מעל	-2614
רע	-2615
במבר	-2616
▁לגבי	-2617
שתת	-2618
▁נוספת	-2619
דרות	-2620
▁נג	-2621
▁since	-2622
כונה	-2623
▁מבחי	-2624
▁team	-2625
▁added	-2626
▁הבע	-2627
וקטו	-2628
imes	-2629
▁פעולה	-2630
▁without	-2631
ccess	-2632
וקטובר	-2633
טון	-2634
ופו	-2635
doc	-2636
▁טבע	-2637
▁בכלל	-2638
חן	-2639
▁לימוד	-2640
ware	-2641
76	-2642
כיר	-2643
נתי	-2644
▁איי	-2645
arm	-2646
דינות	-2647
רס	-2648
▁בשנים	-2649
▁type	-2650
ather	-2651
▁שבת	-2652
פטמבר	-2653
▁place	-2654
וכן	-2655
▁How	-2656
▁ככל	-2657
▁sign	-2658
▁New	-2659
▁tests	-2660
ודת	-2661
);\	-2662
▁create	-2663
אלה	-2664
▁lit	-2665
ודל	-2666
▁עשו	-2667
אלי	-2668
▁הקוד	-2669
gest	-2670
▁בחי	-2671
par	-2672
▁כסף	-2673
▁home	-2674
▁קרא	-2675
פוי	-2676
▁מהמ	-2677
וון	-2678
▁לעצ	-2679
ases	-2680
▁config	-2681
▁קוב	-2682
ically	-2683
usercontent	-2684
!"	-2685
▁דין	-2686
▁sk	-2687
ween	-2688
▁מעבר	-2689
▁טובה	-2690
indows	-2691
▁לכן	-2692
vir	-2693
ures	-2694
▁better	-2695
net	-2696
נועה	-2697
▁ארצות	-2698
md	-2699
כך	-2700
▁ide	-2701
2]	-2702
wh	-2703
▁Sp	-2704
▁מילי	-2705
בוש	-2706
▁פעילות	-2707
):	-2708
זרה	-2709
2014	-2710
רפ	-2711
9.	-2712
▁ספק	-2713
▁few	-2714
▁יוצא	-2715
icro	-2716
▁נבחר	-2717
▁מאפשר	-2718
ght	-2719
טיקה	-2720
▁לאורך	-2721
▁number	-2722
▁שול	-2723
▁לאור	-2724
▁חדשים	-2725
▁might	-2726
▁אנשי	-2727
▁עבוד	-2728
▁page	-2729
▁lot	-2730
צאת	-2731
ואל	-2732
▁2017	-2733
פני	-2734
ared	-2735
png	-2736
▁user	-2737
▁יודע	-2738
▁בקרב	-2739
▁עת	-2740
▁product	-2741
ישור	-2742
▁going	-2743
1\	-2744
▁doesn	-2745
מני	-2746
וסר	-2747
▁הכנסת	-2748
שור	-2749
▁הגד	-2750
▁והע	-2751
▁following	-2752
▁מקור	-2753
▁כגון	-2754
▁ואף	-2755
back	-2756
צמבר	-2757
▁גדולה	-2758
חירות	-2759
שלום	-2760
▁program	-2761
פד	-2762
▁שיי	-2763
▁הכול	-2764
ידים	-2765
ues	-2766
side	-2767
raph	-2768
play	-2769
▁מזה	-2770
▁sur	-2771
כונים	-2772
▁world	-2773
::	-2774
כום	-2775
שיבה	-2776
▁ממנו	-2777
▁שט	-2778
ces	-2779
▁הישראלית	-2780
ready	-2781
יוע	-2782
▁mess	-2783
▁מות	-2784
רוק	-2785
אט	-2786
▁מצד	-2787
ינוך	-2788
מיה	-2789
▁top	-2790
▁שבי	-2791
▁Q	-2792
▁0.	-2793
nE	-2794
גרים	-2795
oard	-2796
▁הדין	-2797
▁ואני	-2798
רונים	-2799
▁fr	-2800
nIf	-2801
▁המל	-2802
▁אפליק	-2803
ביבה	-2804
ידת	-2805
▁>	-2806
land	-2807
▁De	-2808
▁גוגל	-2809
2018	-2810
▁2016	-2811
▁But	-2812
▁בלתי	-2813
ized	-2814
▁person	-2815
▁שנע	-2816
▁המט	-2817
נסה	-2818
▁fail	-2819
יכ	-2820
▁between	-2821
ouse	-2822
▁פולי	-2823
יוני	-2824
▁ערך	-2825
▁ממו	-2826
▁bu	-2827
▁שנו	-2828
ציאות	-2829
▁הקבוצה	-2830
▁document	-2831
▁review	-2832
▁עבר	-2833
פוס	-2834
yle	-2835
44	-2836
▁החדשה	-2837
▁אתר	-2838
▁יס	-2839
▁סיפור	-2840
====	-2841
כח	-2842
▁תהיה	-2843
▁לישראל	-2844
▁25	-2845
/0	-2846
ream	-2847
▁provide	-2848
▁חברי	-2849
▁ומא	-2850
79	-2851
▁מאו	-2852
val	-2853
▁חול	-2854
85	-2855
▁works	-2856
stand	-2857
▁What	-2858
ann	-2859
▁possible	-2860
▁תיק	-2861
▁פרק	-2862
▁שום	-2863
▁חופ	-2864
▁quest	-2865
▁האחרונות	-2866
me	-2867
come	-2868
▁צוות	-2869
ינטרנט	-2870
anch	-2871
▁הפל	-2872
▁לזה	-2873
▁נות	-2874
רפת	-2875
images	-2876
▁release	-2877
▁מחיר	-2878
oogle	-2879
חלט	-2880
ci	-2881
▁med	-2882
ivers	-2883
▁state	-2884
▁לתק	-2885
ush	-2886
▁let	-2887
ארטא	-2888
▁יכולה	-2889
![	-2890
▁בסוף	-2891
▁נכנס	-2892
▁“	-2893
▁שס	-2894
<!--	-2895
▁הדרך	-2896
▁)	-2897
▁כיצד	-2898
טיות	-2899
ונית	-2900
▁איר	-2901
▁lead	-2902
▁method	-2903
ote	-2904
▁למד	-2905
מיכה	-2906
▁חדשה	-2907
▁סג	-2908
נייה	-2909
comm	-2910
▁עור	-2911
▁הסט	-2912
min	-2913
▁next	-2914
▁לראשונה	-2915
נח	-2916
uss	-2917
ופות	-2918
▁חמ	-2919
▁לרכ	-2920
duce	-2921
▁רבה	-2922
▁חיל	-2923
▁As	-2924
גיעה	-2925
▁update	-2926
▁האד	-2927
נתה	-2928
▁כוח	-2929
▁הביטחון	-2930
master	-2931
▁שלושה	-2932
▁קיבל	-2933
▁כולם	-2934
▁child	-2935
▁always	-2936
▁already	-2937
for	-2938
▁another	-2939
▁מבי	-2940
??	-2941
ense	-2942
rect	-2943
ובל	-2944
▁applic	-2945
▁הרח	-2946
▁There	-2947
▁issues	-2948
▁ביי	-2949
▁חברה	-2950
▁איכות	-2951
▁קודם	-2952
▁implement	-2953
ession	-2954
▁So	-2955
▁הלב	-2956
▁תפקיד	-2957
פקד	-2958
▁אינה	-2959
▁בירושלים	-2960
▁תוכלו	-2961
▁שוק	-2962
▁2020	-2963
יתים	-2964
רויות	-2965
▁חודשים	-2966
▁life	-2967
פית	-2968
viron	-2969
▁מנו	-2970
ארד	-2971
att	-2972
ME	-2973
▁things	-2974
34	-2975
כלה	-2976
דרים	-2977
▁והיא	-2978
ules	-2979
▁inf	-2980
▁סוף	-2981
36	-2982
▁משי	-2983
▁אוכל	-2984
▁לפחות	-2985
▁זוג	-2986
שיות	-2987
ux	-2988
▁keep	-2989
רבה	-2990
site	-2991
מיות	-2992
מלי	-2993
▁לעבוד	-2994
▁המשתמש	-2995
▁משק	-2996
3:	-2997
90	-2998
▁ציבור	-2999
רוג	-3000
▁הדבר	-3001
▁משפחת	-3002
▁תוש	-3003
▁עובדים	-3004
▁תת	-3005
▁שקלים	-3006
▁עושה	-3007
▁won	-3008
יט	-3009
▁אלף	-3010
go	-3011
▁אליו	-3012
אור	-3013
▁care	-3014
▁char	-3015
▁value	-3016
קש	-3017
▁ניסיון	-3018
rror	-3019
חרי	-3020
▁בלו	-3021
▁exist	-3022
▁העצ	-3023
▁bug	-3024
מט	-3025
▁בבי	-3026
▁free	-3027
ross	-3028
▁24	-3029
▁מסוג	-3030
eed	-3031
▁bre	-3032
שע	-3033
▁expl	-3034
▁רשת	-3035
ארט	-3036
חקר	-3037
זיק	-3038
▁//	-3039
▁2015	-3040
''	-3041
und	-3042
▁דעת	-3043
▁cour	-3044
▁הפרו	-3045
77	-3046
▁Pl	-3047
▁files	-3048
וכר	-3049
ירי	-3050
▁קטן	-3051
▁הזאת	-3052
cription	-3053
ody	-3054
ced	-3055
▁del	-3056
▁lar	-3057
פוש	-3058
▁השק	-3059
▁הקט	-3060
ברג	-3061
▁באירו	-3062
▁Con	-3063
▁50	-3064
ברואר	-3065
▁לתת	-3066
▁access	-3067
li	-3068
vis	-3069
ital	-3070
זים	-3071
הול	-3072
▁שלום	-3073
▁הרפ	-3074
ציב	-3075
אק	-3076
ibr	-3077
▁wr	-3078
▁מגיע	-3079
88	-3080
itch	-3081
ency	-3082
▁count	-3083
▁perform	-3084
▁התג	-3085
time	-3086
נין	-3087
66	-3088
▁behav	-3089
▁קרו	-3090
ידי	-3091
צית	-3092
פיות	-3093
קירה	-3094
בעת	-3095
2\	-3096
▁pol	-3097
▁2021	-3098
▁כמובן	-3099
ישהו	-3100
55	-3101
ומרים	-3102
▁מים	-3103
▁בכך	-3104
▁ואז	-3105
▁וט	-3106
?"	-3107
▁אחוז	-3108
מאות	-3109
▁אפל	-3110
▁היסט	-3111
▁צריכים	-3112
ining	-3113
▁מכש	-3114
nL	-3115
riend	-3116
▁בידי	-3117
self	-3118
▁למעשה	-3119
▁service	-3120
▁באותה	-3121
fig	-3122
▁head	-3123
▁הוק	-3124
nY	-3125
▁מלחמת	-3126
▁ref	-3127
מודד	-3128
▁הילדים	-3129
▁Z	-3130
נאים	-3131
יינו	-3132
▁el	-3133
▁small	-3134
▁שיה	-3135
ym	-3136
סיס	-3137
סור	-3138
קסט	-3139
▁להק	-3140
▁המג	-3141
eng	-3142
▁opt	-3143
▁חוז	-3144
▁Can	-3145
▁conn	-3146
▁פול	-3147
▁prof	-3148
▁ברחבי	-3149
צלחה	-3150
▁עובד	-3151
▁להשתמש	-3152
ונת	-3153
ווים	-3154
▁טיפול	-3155
ably	-3156
▁techn	-3157
▁השל	-3158
▁משום	-3159
▁ברשת	-3160
▁second	-3161
atest	-3162
▁הייתי	-3163
roll	-3164
▁put	-3165
▁contain	-3166
oud	-3167
ling	-3168
bers	-3169
nWe	-3170
▁ואם	-3171
מרים	-3172
▁זכה	-3173
▁קבוצת	-3174
▁האתר	-3175
▁המידע	-3176
וכה	-3177
Th	-3178
▁הרג	-3179
▁לפת	-3180
▁מעור	-3181
inal	-3182
▁כדור	-3183
▁לכת	-3184
פג	-3185
nIt	-3186
▁לבצע	-3187
▁הללו	-3188
▁סל	-3189
▁Please	-3190
▁עולה	-3191
iet	-3192
ניסה	-3193
▁מצב	-3194
reen	-3195
▁לקראת	-3196
br	-3197
pm	-3198
ייט	-3199
▁רוח	-3200
ulti	-3201
itional	-3202
▁לוח	-3203
3,	-3204
ניתן	-3205
▁לבד	-3206
▁האלה	-3207
▁ברור	-3208
▁לאי	-3209
▁מחדש	-3210
ese	-3211
▁מוח	-3212
חיל	-3213
סיק	-3214
ute	-3215
▁עולם	-3216
▁המשי	-3217
ified	-3218
▁גבוהה	-3219
▁real	-3220
ought	-3221
מניה	-3222
וניות	-3223
▁order	-3224
בלו	-3225
-6	-3226
▁dev	-3227
osit	-3228
יג	-3229
vironment	-3230
▁הצע	-3231
▁x	-3232
בון	-3233
▁during	-3234
▁ושי	-3235
▁feel	-3236
כלי	-3237
▁השתת	-3238
AT	-3239
▁2014	-3240
▁בתל	-3241
ריקה	-3242
▁צד	-3243
▁הכת	-3244
▁אתמול	-3245
less	-3246
▁book	-3247
▁ניצ	-3248
▁מוב	-3249
▁got	-3250
▁אותנו	-3251
esp	-3252
▁pull	-3253
▁בהתאם	-3254
▁לחי	-3255
74	-3256
▁קצ	-3257
▁local	-3258
▁בשביל	-3259
▁במאי	-3260
ונס	-3261
sure	-3262
▁הדברים	-3263
▁שרי	-3264
דיו	-3265
▁זכ	-3266
▁ארג	-3267
▁194	-3268
עור	-3269
▁dist	-3270
▁הצד	-3271
▁מאי	-3272
}\	-3273
ריז	-3274
עבר	-3275
▁למח	-3276
▁ירי	-3277
▁חיו	-3278
▁old	-3279
▁משפט	-3280
סר	-3281
▁pri	-3282
▁depend	-3283
▁הקי	-3284
ness	-3285
atus	-3286
▁disc	-3287
▁החולים	-3288
▁נולד	-3289
▁בסרט	-3290
חם	-3291
▁why	-3292
▁love	-3293
ately	-3294
▁דווקא	-3295
▁הרע	-3296
▁תיא	-3297
▁במשחק	-3298
▁key	-3299
▁תר	-3300
▁seems	-3301
▁הלו	-3302
▁כוחות	-3303
▁ידע	-3304
▁הרש	-3305
▁הסת	-3306
▁אחרות	-3307
fe	-3308
▁מני	-3309
▁-->\	-3310
▁בסיס	-3311
ns	-3312
נויים	-3313
פרו	-3314
שאים	-3315
סוף	-3316
ology	-3317
▁allow	-3318
▁תוכנית	-3319
▁ישראלי	-3320
▁להבין	-3321
▁done	-3322
▁שכן	-3323
ES	-3324
▁month	-3325
▁שמא	-3326
▁writ	-3327
▁כלומר	-3328
▁appro	-3329
ves	-3330
▁תפ	-3331
ants	-3332
▁4.	-3333
פרסם	-3334
▁״	-3335
ope	-3336
הליך	-3337
▁partic	-3338
▁פא	-3339
רחב	-3340
▁העונה	-3341
▁האל	-3342
מנט	-3343
▁הצבא	-3344
וציא	-3345
▁בזה	-3346
▁plan	-3347
ביש	-3348
▁המכ	-3349
▁const	-3350
▁במקרה	-3351
▁שבוע	-3352
ומיים	-3353
▁מבצע	-3354
▁little	-3355
ינם	-3356
rol	-3357
▁interest	-3358
▁ליד	-3359
][	-3360
▁העסק	-3361
ially	-3362
▁הפי	-3363
▁oper	-3364
▁הוע	-3365
▁field	-3366
▁לאח	-3367
▁כע	-3368
▁miss	-3369
▁פעמים	-3370
▁בשעה	-3371
soft	-3372
▁incre	-3373
פליקציה	-3374
▁דוג	-3375
הי	-3376
ron	-3377
▁pur	-3378
ידאו	-3379
▁נחש	-3380
▁say	-3381
▁מיל	-3382
1)	-3383
▁שאתם	-3384
▁ידוע	-3385
▁שקל	-3386
▁dri	-3387
בריו	-3388
שיבות	-3389
▁צפו	-3390
▁ימי	-3391
▁must	-3392
▁מצא	-3393
ference	-3394
כתה	-3395
▁view	-3396
זב	-3397
בעים	-3398
38	-3399
טרף	-3400
▁גול	-3401
▁בעבר	-3402
▁לטי	-3403
ומו	-3404
▁כעת	-3405
▁Be	-3406
ats	-3407
שתו	-3408
▁ברק	-3409
AR	-3410
▁event	-3411
▁סיי	-3412
▁חת	-3413
yn	-3414
▁rece	-3415
▁ההג	-3416
▁פיתוח	-3417
▁מיני	-3418
שום	-3419
▁tem	-3420
▁סמ	-3421
פילו	-3422
באי	-3423
▁rest	-3424
▁כהן	-3425
▁typ	-3426
▁שאנחנו	-3427
▁והה	-3428
ret	-3429
סיה	-3430
hip	-3431
▁stand	-3432
▁package	-3433
▁sug	-3434
▁נוספות	-3435
▁תודה	-3436
▁instead	-3437
▁השירות	-3438
▁הנת	-3439
▁ולי	-3440
▁האופ	-3441
Pro	-3442
0\	-3443
▁אזרח	-3444
ization	-3445
▁offer	-3446
▁טור	-3447
▁תמ	-3448
▁נקודות	-3449
tr	-3450
nhttps	-3451
til	-3452
▁הנא	-3453
▁אוט	-3454
לטפור	-3455
▁option	-3456
comp	-3457
▁לעומת	-3458
ריט	-3459
מונים	-3460
בוא	-3461
כונות	-3462
▁full	-3463
ארק	-3464
▁level	-3465
▁experience	-3466
▁ללי	-3467
▁בשנה	-3468
OR	-3469
let	-3470
▁קצר	-3471
quest	-3472
ium	-3473
מודים	-3474
▁All	-3475
med	-3476
▁hard	-3477
▁company	-3478
▁הפת	-3479
▁במד	-3480
▁including	-3481
Ex	-3482
▁גבי	-3483
▁בהמשך	-3484
▁שגם	-3485
הילה	-3486
▁להתק	-3487
ולת	-3488
דוד	-3489
▁commit	-3490
▁ולע	-3491
שייה	-3492
▁rele	-3493
כולת	-3494
ניו	-3495
▁Int	-3496
search	-3497
ars	-3498
פרד	-3499
▁שהיו	-3500
')	-3501
unch	-3502
▁המאה	-3503
▁לוי	-3504
ention	-3505
▁מערכות	-3506
▁פלי	-3507
aps	-3508
פלגה	-3509
59	-3510
טיב	-3511
37	-3512
que	-3513
▁running	-3514
▁התכ	-3515
▁והח	-3516
▁שלוש	-3517
ייק	-3518
▁ללמוד	-3519
יהן	-3520
▁adv	-3521
▁אצ	-3522
-10	-3523
▁public	-3524
▁יהודה	-3525
▁האחרונה	-3526
לקוחות	-3527
▁החלט	-3528
▁נור	-3529
נצ	-3530
נל	-3531
eg	-3532
▁ask	-3533
▁Hi	-3534
▁במרכז	-3535
▁צורך	-3536
פרט	-3537
▁ובר	-3538
▁consider	-3539
▁contin	-3540
ראו	-3541
▁health	-3542
▁יעקב	-3543
oved	-3544
▁שיר	-3545
▁creat	-3546
▁give	-3547
▁הבריאות	-3548
▁האחרונים	-3549
▁impro	-3550
▁גא	-3551
▁אק	-3552
▁החינוך	-3553
רוך	-3554
▁cent	-3555
▁needs	-3556
▁המשפחה	-3557
ateg	-3558
▁include	-3559
▁מנהל	-3560
▁cho	-3561
▁השפ	-3562
▁organ	-3563
iles	-3564
בירה	-3565
arly	-3566
▁עצמה	-3567
▁imp	-3568
▁האוויר	-3569
▁default	-3570
ליף	-3571
▁לומר	-3572
▁קא	-3573
▁תלו	-3574
issues	-3575
▁בעזרת	-3576
▁On	-3577
build	-3578
זית	-3579
▁יצחק	-3580
▁They	-3581
▁three	-3582
▁בשלב	-3583
▁ברא	-3584
▁cr	-3585
▁משתמשים	-3586
ייב	-3587
פיים	-3588
▁לשם	-3589
▁App	-3590
ait	-3591
שימת	-3592
pd	-3593
▁ליה	-3594
▁ליצור	-3595
▁עושים	-3596
סטר	-3597
▁bit	-3598
רקע	-3599
▁met	-3600
יינים	-3601
מצע	-3602
▁פיק	-3603
▁בגיל	-3604
▁המלא	-3605
עיף	-3606
ייש	-3607
▁ממשי	-3608
▁אמריק	-3609
וקת	-3610
docs	-3611
icrosoft	-3612
▁המשטרה	-3613
▁לצאת	-3614
▁him	-3615
▁בתפקיד	-3616
קול	-3617
ולוגיה	-3618
▁איזה	-3619
`,	-3620
▁דר	-3621
▁בנובמבר	-3622
67	-3623
וצאת	-3624
▁שיק	-3625
▁מחש	-3626
▁מסו	-3627
▁command	-3628
▁תצ	-3629
hot	-3630
▁sw	-3631
▁תהליך	-3632
▁בתחילת	-3633
▁רכב	-3634
נדי	-3635
ילוב	-3636
▁באפרי	-3637
aj	-3638
32	-3639
iving	-3640
מישי	-3641
▁המוד	-3642
▁tool	-3643
vious	-3644
▁היד	-3645
▁מאות	-3646
▁בינואר	-3647
▁API	-3648
▁מהא	-3649
54	-3650
▁סול	-3651
-200	-3652
▁When	-3653
▁יהיו	-3654
▁market	-3655
ליו	-3656
▁correct	-3657
▁לצורך	-3658
by	-3659
▁שהי	-3660
▁big	-3661
87	-3662
נסת	-3663
▁40	-3664
▁My	-3665
▁ובא	-3666
▁מספיק	-3667
▁ביולי	-3668
ray	-3669
▁שות	-3670
גרם	-3671
▁הרצ	-3672
▁important	-3673
▁dr	-3674
לקת	-3675
▁בספטמבר	-3676
▁object	-3677
שתי	-3678
▁school	-3679
lection	-3680
▁לשעבר	-3681
ביעה	-3682
▁בטי	-3683
uck	-3684
▁understand	-3685
▁mus	-3686
ms	-3687
כני	-3688
8,	-3689
apt	-3690
▁effect	-3691
▁z	-3692
▁חיפה	-3693
מידים	-3694
▁come	-3695
ently	-3696
▁סק	-3697
▁specific	-3698
gs	-3699
▁וכו	-3700
כמה	-3701
בלות	-3702
▁ביוני	-3703
▁ייע	-3704
▁היתר	-3705
69	-3706
▁בשוק	-3707
▁טוע	-3708
▁יוסף	-3709
▁sl	-3710
▁מתי	-3711
▁טכנולוג	-3712
דרש	-3713
▁במי	-3714
set	-3715
נתיים	-3716
לחת	-3717
sw	-3718
▁צבא	-3719
סא	-3720
▁באוקטובר	-3721
דרי	-3722
▁ייש	-3723
itor	-3724
▁הקרו	-3725
ists	-3726
roid	-3727
▁אפש	-3728
מינים	-3729
▁בהן	-3730
▁חר	-3731
▁השחק	-3732
</	-3733
▁המקום	-3734
▁והס	-3735
pull	-3736
ומן	-3737
שטיין	-3738
פתחות	-3739
▁להשי	-3740
▁הים	-3741
arning	-3742
ieve	-3743
וביץ	-3744
▁אינם	-3745
פך	-3746
▁sing	-3747
▁אלק	-3748
וצרים	-3749
▁Do	-3750
____	-3751
▁Se	-3752
וקי	-3753
מאס	-3754
pack	-3755
▁אישי	-3756
▁success	-3757
▁באותו	-3758
3]	-3759
▁מפני	-3760
▁תומ	-3761
מוס	-3762
tain	-3763
▁באוניברסי	-3764
▁באוגוסט	-3765
▁water	-3766
▁intern	-3767
▁within	-3768
ליטה	-3769
כא	-3770
▁הטוב	-3771
עון	-3772
▁looking	-3773
ird	-3774
-7	-3775
▁לקחת	-3776
▁המוש	-3777
▁תרו	-3778
פורים	-3779
▁למקום	-3780
▁below	-3781
▁עליהם	-3782
הא	-3783
▁having	-3784
וונת	-3785
ליל	-3786
▁21	-3787
▁text	-3788
▁ולק	-3789
▁Fr	-3790
▁based	-3791
ural	-3792
▁ואין	-3793
▁לשחק	-3794
:0	-3795
▁Tr	-3796
וספת	-3797
▁making	-3798
▁No	-3799
וניים	-3800
name	-3801
▁המערכת	-3802
▁יפה	-3803
פייה	-3804
.\"	-3805
נוס	-3806
▁family	-3807
צחון	-3808
ריית	-3809
▁שאי	-3810
▁יודעים	-3811
atic	-3812
▁fact	-3813
init	-3814
▁friend	-3815
▁המלחמה	-3816
iver	-3817
▁משנה	-3818
▁בנק	-3819
▁השלישי	-3820
▁ומס	-3821
▁מסוי	-3822
ינים	-3823
▁בול	-3824
▁ארגון	-3825
arget	-3826
לוג	-3827
▁grow	-3828
▁היר	-3829
of	-3830
פשרות	-3831
2)	-3832
uture	-3833
▁בדצמבר	-3834
▁Te	-3835
ences	-3836
etwork	-3837
▁להור	-3838
▁כב	-3839
▁et	-3840
▁בוד	-3841
▁מיד	-3842
וסים	-3843
html	-3844
▁יהודי	-3845
▁מאח	-3846
▁יהודים	-3847
ורף	-3848
לקה	-3849
ניינים	-3850
וסק	-3851
▁multi	-3852
▁להמשיך	-3853
כולם	-3854
ליחה	-3855
ניהול	-3856
▁והם	-3857
▁שינוי	-3858
-201	-3859
▁זכויות	-3860
▁המוז	-3861
▁suggest	-3862
▁במרץ	-3863
▁}\	-3864
ריכה	-3865
▁2013	-3866
ey	-3867
▁US	-3868
▁שרו	-3869
נז	-3870
▁bro	-3871
▁never	-3872
▁ענק	-3873
▁2010	-3874
▁מבוס	-3875
▁sit	-3876
▁cert	-3877
▁השימוש	-3878
▁המוס	-3879
▁להח	-3880
####	-3881
onse	-3882
▁מבין	-3883
נדה	-3884
▁הגדולה	-3885
ients	-3886
ential	-3887
▁להז	-3888
AN	-3889
רוסופט	-3890
▁עשרות	-3891
▁ההס	-3892
▁מצו	-3893
▁ממשלת	-3894
▁זהו	-3895
▁הבל	-3896
hor	-3897
▁true	-3898
▁באפריל	-3899
▁cou	-3900
▁until	-3901
ברהם	-3902
מרו	-3903
▁לעולם	-3904
▁בפי	-3905
agement	-3906
בתי	-3907
▁That	-3908
נויות	-3909
▁מראש	-3910
atter	-3911
ocal	-3912
▁Des	-3913
▁eng	-3914
ift	-3915
▁getting	-3916
▁וכך	-3917
▁רמת	-3918
סקה	-3919
add	-3920
ugin	-3921
▁נט	-3922
▁job	-3923
ציית	-3924
▁הצה	-3925
סו	-3926
▁ובש	-3927
▁עיצוב	-3928
▁שמח	-3929
מוע	-3930
▁תנאי	-3931
▁ורו	-3932
▁שונה	-3933
▁משא	-3934
ception	-3935
the	-3936
▁makes	-3937
▁יורק	-3938
▁פנים	-3939
▁סביב	-3940
ideo	-3941
ID	-3942
56	-3943
▁behavior	-3944
▁pay	-3945
ips	-3946
טג	-3947
מב	-3948
▁ולאחר	-3949
▁Ind	-3950
▁שיא	-3951
טיח	-3952
▁בחברה	-3953
▁המכשיר	-3954
gin	-3955
ired	-3956
▁לסי	-3957
▁game	-3958
Cl	-3959
ורית	-3960
▁התורה	-3961
book	-3962
עתי	-3963
▁גרי	-3964
oh	-3965
ether	-3966
▁לשמור	-3967
כלית	-3968
box	-3969
▁מהש	-3970
arent	-3971
▁שחר	-3972
▁תמונות	-3973
src	-3974
יעו	-3975
▁עוז	-3976
מאי	-3977
▁כות	-3978
▁contribut	-3979
▁שז	-3980
▁Sc	-3981
▁Ad	-3982
▁קיב	-3983
ersion	-3984
▁כנראה	-3985
נסות	-3986
iversity	-3987
▁2012	-3988
▁אזור	-3989
run	-3990
▁האר	-3991
▁האש	-3992
▁דומה	-3993
57	-3994
▁במידה	-3995
▁לוק	-3996
▁אותן	-3997
▁שהח	-3998
▁הנשיא	-3999
▁להתמודד	-4000
▁תנו	-4001
ral	-4002
▁בחודש	-4003
file	-4004
▁מנכ	-4005
▁אותך	-4006
ובע	-4007
מנית	-4008
eter	-4009
▁חושב	-4010
▁actually	-4011
atform	-4012
▁_	-4013
▁והצ	-4014
oid	-4015
ours	-4016
▁cover	-4017
Re	-4018
▁אתכם	-4019
▁דני	-4020
▁ויו	-4021
▁שד	-4022
node	-4023
▁מסי	-4024
ocus	-4025
▁הפועל	-4026
ישים	-4027
por	-4028
פקת	-4029
ibrary	-4030
▁looks	-4031
▁ניהול	-4032
▁Col	-4033
▁close	-4034
▁special	-4035
▁חו	-4036
▁אוב	-4037
▁שהע	-4038
http	-4039
יתון	-4040
▁חק	-4041
מץ	-4042
▁למעלה	-4043
▁יז	-4044
▁present	-4045
▁מדינת	-4046
meric	-4047
aces	-4048
▁message	-4049
▁כדאי	-4050
▁מדינות	-4051
idd	-4052
eps	-4053
ועדה	-4054
▁לקוחות	-4055
▁ומי	-4056
נע	-4057
cent	-4058
▁הגיעו	-4059
▁בשבוע	-4060
▁משות	-4061
כנת	-4062
AS	-4063
▁הרכב	-4064
▁הקרי	-4065
▁מגוון	-4066
▁הוב	-4067
ister	-4068
▁חצי	-4069
מויות	-4070
over	-4071
▁היהודי	-4072
dis	-4073
קשה	-4074
ואלי	-4075
▁days	-4076
▁שאתה	-4077
▁אנג	-4078
▁הבר	-4079
▁כאלה	-4080
▁שנק	-4081
▁site	-4082
▁happen	-4083
▁מדו	-4084
▁thing	-4085
▁area	-4086
לטון	-4087
▁העליון	-4088
▁זק	-4089
חח	-4090
▁address	-4091
ישות	-4092
▁light	-4093
bably	-4094
▁עקב	-4095
▁מאד	-4096
אג	-4097
ither	-4098
▁services	-4099
▁בימים	-4100
▁prom	-4101
▁non	-4102
▁חודש	-4103
osing	-4104
וסטר	-4105
ording	-4106
image	-4107
▁load	-4108
▁group	-4109
flow	-4110
]\	-4111
ipp	-4112
ples	-4113
ny	-4114
מרת	-4115
▁ראשי	-4116
▁בספר	-4117
▁activ	-4118
:4	-4119
▁הקורונה	-4120
Com	-4121
▁At	-4122
ards	-4123
▁הקול	-4124
LE	-4125
▁פייסבוק	-4126
▁לדבר	-4127
ופול	-4128
▁invest	-4129
▁אמנם	-4130
ember	-4131
▁קיים	-4132
▁כלפי	-4133
מכ	-4134
1/	-4135
▁less	-4136
urity	-4137
רגיה	-4138
מתי	-4139
יית	-4140
▁משחקים	-4141
▁Or	-4142
ords	-4143
outh	-4144
ources	-4145
חרר	-4146
sum	-4147
▁ערב	-4148
▁though	-4149
▁השם	-4150
▁image	-4151
▁today	-4152
▁לאחרונה	-4153
▁לילדים	-4154
▁created	-4155
ache	-4156
▁trying	-4157
לונות	-4158
▁רואה	-4159
▁To	-4160
▁Bl	-4161
▁מסע	-4162
▁מומל	-4163
▁שלמה	-4164
▁5.	-4165
רטים	-4166
גיט	-4167
▁פרטי	-4168
▁search	-4169
ability	-4170
egr	-4171
▁מאשר	-4172
▁אפשרות	-4173
▁דרי	-4174
דין	-4175
ories	-4176
ump	-4177
▁cost	-4178
▁ארי	-4179
▁ליו	-4180
▁prot	-4181
▁מהת	-4182
▁doing	-4183
ager	-4184
ניח	-4185
▁מלאה	-4186
▁שיחק	-4187
ותם	-4188
רואיד	-4189
face	-4190
▁אינט	-4191
▁להביא	-4192
nG	-4193
ורו	-4194
▁מכיוון	-4195
▁נכ	-4196
▁1,	-4197
▁נשיא	-4198
fl	-4199
מחה	-4200
▁מהר	-4201
▁מונ	-4202
סית	-4203
▁aff	-4204
▁ושל	-4205
▁above	-4206
▁ונו	-4207
▁server	-4208
▁מפל	-4209
▁ב־	-4210
תיק	-4211
▁חג	-4212
▁select	-4213
RE	-4214
▁לקרוא	-4215
95	-4216
רית	-4217
▁Cont	-4218
▁אלפי	-4219
יקים	-4220
▁בפברואר	-4221
יתונ	-4222
▁פו	-4223
▁ben	-4224
▁environment	-4225
מדה	-4226
דית	-4227
נסים	-4228
▁solution	-4229
▁pop	-4230
ידום	-4231
▁רגע	-4232
package	-4233
▁mer	-4234
▁עלה	-4235
uration	-4236
▁הבאה	-4237
▁ann	-4238
▁past	-4239
▁עומד	-4240
▁עק	-4241
▁dem	-4242
▁ולש	-4243
▁la	-4244
▁path	-4245
ism	-4246
orn	-4247
פעל	-4248
▁phot	-4249
▁כרטי	-4250
▁המוצר	-4251
iven	-4252
▁הפך	-4253
▁רקע	-4254
▁repro	-4255
▁משמעותי	-4256
ווית	-4257
▁required	-4258
ואים	-4259
▁משנת	-4260
▁מהע	-4261
▁easy	-4262
סטים	-4263
▁הראשונים	-4264
▁students	-4265
גובה	-4266
▁branch	-4267
▁הבינלא	-4268
▁En	-4269
▁לרו	-4270
----------------	-4271
▁fixed	-4272
▁לבן	-4273
▁exc	-4274
▁מצי	-4275
קרים	-4276
▁והן	-4277
ler	-4278
בעות	-4279
▁thought	-4280
▁מחוץ	-4281
python	-4282
orth	-4283
▁מרי	-4284
▁didn	-4285
▁currently	-4286
▁מכבי	-4287
2/	-4288
▁לבחור	-4289
ended	-4290
▁win	-4291
▁הוש	-4292
יעות	-4293
▁Windows	-4294
bin	-4295
▁הפולי	-4296
▁כוכ	-4297
מידה	-4298
▁העת	-4299
ומד	-4300
▁side	-4301
נוך	-4302
ilt	-4303
בוצת	-4304
................	-4305
▁orig	-4306
▁sever	-4307
AD	-4308
▁init	-4309
▁latest	-4310
▁community	-4311
▁צריכה	-4312
לוו	-4313
cle	-4314
▁soc	-4315
▁טרא	-4316
▁חב	-4317
▁account	-4318
▁לאתר	-4319
▁גדולים	-4320
ries	-4321
▁לבע	-4322
▁הוכ	-4323
▁הקשר	-4324
▁וכי	-4325
בוי	-4326
▁הגרמ	-4327
ivid	-4328
נץ	-4329
ython	-4330
ored	-4331
שויות	-4332
▁הקד	-4333
▁supp	-4334
IT	-4335
ליפות	-4336
▁users	-4337
▁ים	-4338
cribe	-4339
מאל	-4340
▁ילד	-4341
▁המצב	-4342
מיר	-4343
רבים	-4344
▁reason	-4345
דע	-4346
שהו	-4347
▁השונים	-4348
▁meet	-4349
java	-4350
▁result	-4351
NA	-4352
Ch	-4353
▁אישית	-4354
▁במקביל	-4355
▁מאוחר	-4356
חלטה	-4357
ציבור	-4358
▁האיש	-4359
▁איל	-4360
▁הגבוה	-4361
▁שעבר	-4362
▁מבחינת	-4363
קיה	-4364
www	-4365
▁לשנות	-4366
ae	-4367
הת	-4368
▁התש	-4369
raw	-4370
▁future	-4371
▁needed	-4372
miss	-4373
Cont	-4374
▁להסת	-4375
פריה	-4376
ואו	-4377
▁הביט	-4378
ision	-4379
ables	-4380
▁related	-4381
ervice	-4382
3\	-4383
▁פוע	-4384
▁term	-4385
▁לידי	-4386
▁קש	-4387
▁אכן	-4388
▁עסקים	-4389
סטית	-4390
▁emp	-4391
▁הפעם	-4392
יתו	-4393
▁("	-4394
▁כמות	-4395
▁יוש	-4396
▁חייב	-4397
▁Man	-4398
▁הטר	-4399
▁במצב	-4400
▁repl	-4401
▁אודות	-4402
נדון	-4403
▁ממנה	-4404
▁quick	-4405
▁בריאות	-4406
▁שבא	-4407
▁אול	-4408
▁turn	-4409
▁ספורט	-4410
▁השו	-4411
רצ	-4412
▁בור	-4413
טרת	-4414
▁power	-4415
▁ורק	-4416
▁thanks	-4417
גרי	-4418
יח	-4419
גרפיה	-4420
▁ele	-4421
▁equ	-4422
▁תואר	-4423
▁move	-4424
וויה	-4425
use	-4426
▁idea	-4427
▁ביצוע	-4428
רכב	-4429
טיק	-4430
▁פרופ	-4431
▁במא	-4432
▁ביד	-4433
▁אנד	-4434
▁via	-4435
▁2011	-4436
לן	-4437
▁לחץ	-4438
▁להשת	-4439
▁תורה	-4440
▁השיר	-4441
בוץ	-4442
▁Res	-4443
▁עיר	-4444
▁אברהם	-4445
joy	-4446
▁לעבור	-4447
▁שימש	-4448
ending	-4449
▁pract	-4450
וגר	-4451
▁במטרה	-4452
▁documentation	-4453
▁למנוע	-4454
dev	-4455
▁discuss	-4456
▁עניין	-4457
שבון	-4458
▁עצמי	-4459
מדת	-4460
▁short	-4461
▁בארצות	-4462
רוע	-4463
ובר	-4464
▁העובדה	-4465
▁נעשה	-4466
▁האירוע	-4467
המ	-4468
▁החלו	-4469
94	-4470
▁Americ	-4471
▁mean	-4472
לוטין	-4473
alse	-4474
▁הקמת	-4475
זע	-4476
▁fac	-4477
▁content	-4478
▁תרג	-4479
▁research	-4480
▁דף	-4481
▁למס	-4482
▁צרפת	-4483
משת	-4484
▁במערכת	-4485
▁שיכול	-4486
list	-4487
thers	-4488
▁מבו	-4489
▁תס	-4490
▁בזכות	-4491
▁enc	-4492
▁Sch	-4493
6,	-4494
▁בבר	-4495
('	-4496
▁source	-4497
▁enough	-4498
בורג	-4499
▁מיליארד	-4500
ering	-4501
urs	-4502
▁ואפילו	-4503
▁results	-4504
▁development	-4505
▁והפ	-4506
▁2009	-4507
▁לחלוטין	-4508
ציאה	-4509
יתוף	-4510
olved	-4511
▁בתור	-4512
▁Im	-4513
▁ובכל	-4514
▁התפ	-4515
▁תרבות	-4516
2026	-4517
json	-4518
▁עב	-4519
כנה	-4520
▁לעמוד	-4521
▁הגר	-4522
ושר	-4523
▁Eng	-4524
▁appear	-4525
down	-4526
צרו	-4527
יתכן	-4528
▁הבחירות	-4529
כמים	-4530
TM	-4531
▁yet	-4532
▁occ	-4533
▁kind	-4534
-15	-4535
▁לעיתים	-4536
▁יחסית	-4537
▁against	-4538
▁החלה	-4539
▁נז	-4540
▁הטבע	-4541
▁Ph	-4542
יאון	-4543
▁times	-4544
pre	-4545
▁מוצרים	-4546
▁autom	-4547
▁children	-4548
7,	-4549
▁self	-4550
▁עצמם	-4551
▁called	-4552
לחמת	-4553
פרים	-4554
▁probably	-4555
▁עז	-4556
▁cond	-4557
▁הרשת	-4558
ארטאפ	-4559
▁ובו	-4560
▁Not	-4561
גישה	-4562
▁est	-4563
▁pack	-4564
▁בהחלט	-4565
▁אוו	-4566
ורד	-4567
▁הסכם	-4568
osition	-4569
ורר	-4570
'\	-4571
וכנות	-4572
וגה	-4573
▁בחר	-4574
מנע	-4575
▁updated	-4576
יסטוריה	-4577
יימים	-4578
▁סופ	-4579
▁once	-4580
▁gl	-4581
▁שירותי	-4582
▁Cent	-4583
▁המקצוע	-4584
Con	-4585
▁המפ	-4586
▁יוני	-4587
נהגות	-4588
▁output	-4589
▁port	-4590
▁העיק	-4591
בב	-4592
ina	-4593
▁התקשורת	-4594
OT	-4595
8\	-4596
▁Le	-4597
אד	-4598
AC	-4599
▁match	-4600
▁למען	-4601
.[1]	-4602
▁מרח	-4603
▁נושא	-4604
▁משפחה	-4605
▁חומ	-4606
יקי	-4607
▁טרי	-4608
▁אירופה	-4609
▁בעצם	-4610
וטנ	-4611
fort	-4612
gether	-4613
אום	-4614
ודעה	-4615
opy	-4616
▁Rep	-4617
גיעו	-4618
▁וו	-4619
▁ומק	-4620
▁together	-4621
onent	-4622
▁העול	-4623
gu	-4624
▁הערב	-4625
▁ככה	-4626
▁website	-4627
53	-4628
ירא	-4629
...\	-4630
▁העי	-4631
▁ביניהם	-4632
▁דול	-4633
▁צבע	-4634
▁course	-4635
▁להא	-4636
▁חברים	-4637
ape	-4638
▁החברת	-4639
▁להפוך	-4640
▁צו	-4641
▁clean	-4642
רחק	-4643
aff	-4644
▁המים	-4645
▁משמעותית	-4646
ott	-4647
דמנות	-4648
▁יכולות	-4649
▁שהמ	-4650
angu	-4651
oney	-4652
ידן	-4653
▁food	-4654
oci	-4655
AL	-4656
ai	-4657
rist	-4658
▁bas	-4659
▁שומ	-4660
שתה	-4661
▁הנג	-4662
▁model	-4663
ration	-4664
▁היהודים	-4665
▁התוכנית	-4666
▁העלי	-4667
▁ההצ	-4668
ique	-4669
ביה	-4670
▁least	-4671
▁lim	-4672
bed	-4673
לוש	-4674
▁בניגוד	-4675
זין	-4676
▁טובים	-4677
▁ובת	-4678
Wh	-4679
▁large	-4680
▁break	-4681
▁etc	-4682
לבום	-4683
▁ביחד	-4684
▁תוכן	-4685
ודו	-4686
db	-4687
שפ	-4688
▁לחזור	-4689
▁ומח	-4690
▁עבד	-4691
ging	-4692
nU	-4693
▁along	-4694
▁יר	-4695
▁יצירת	-4696
data	-4697
גוון	-4698
▁שניתן	-4699
ST	-4700
▁יג	-4701
▁תקופה	-4702
▁במוע	-4703
ged	-4704
rew	-4705
▁הארגון	-4706
▁קרן	-4707
▁left	-4708
▁וידאו	-4709
ively	-4710
נקים	-4711
▁means	-4712
▁due	-4713
▁לדוג	-4714
ecess	-4715
▁כללי	-4716
▁ייצ	-4717
▁מישהו	-4718
▁חוץ	-4719
▁block	-4720
▁visit	-4721
▁האס	-4722
▁הבוקר	-4723
nFor	-4724
▁האוכל	-4725
▁שעה	-4726
נפ	-4727
▁בסופו	-4728
inux	-4729
▁מכך	-4730
▁track	-4731
כוי	-4732
▁Inst	-4733
כונת	-4734
▁learn	-4735
▁sal	-4736
▁מהח	-4737
מדו	-4738
nYou	-4739
▁כתוצאה	-4740
▁מחקר	-4741
che	-4742
באנגלית	-4743
▁החברות	-4744
illion	-4745
plate	-4746
▁מתחת	-4747
▁May	-4748
▁focus	-4749
son	-4750
ilar	-4751
▁מבית	-4752
▁Test	-4753
SS	-4754
▁שהצ	-4755
▁online	-4756
▁מוצר	-4757
Error	-4758
ראית	-4759
78	-4760
▁שקי	-4761
▁פורסם	-4762
ibility	-4763
שיית	-4764
חסים	-4765
▁פרסום	-4766
fect	-4767
דמות	-4768
▁פסי	-4769
▁מסך	-4770
▁חרי	-4771
▁סיפר	-4772
▁hist	-4773
▁single	-4774
ישת	-4775
משל	-4776
0000	-4777
▁שיתוף	-4778
▁נתונים	-4779
▁עמו	-4780
▁שאם	-4781
▁ריש	-4782
פחה	-4783
▁מעוני	-4784
▁הגוף	-4785
▁שאינו	-4786
▁שמה	-4787
▁כנגד	-4788
▁מבלי	-4789
▁שיהיה	-4790
▁Fix	-4791
▁לרוב	-4792
ברר	-4793
▁הנוכ	-4794
▁cap	-4795
▁הבו	-4796
board	-4797
▁לעזור	-4798
▁תז	-4799
▁הנראה	-4800
▁עמוד	-4801
▁תופ	-4802
ומיות	-4803
▁exec	-4804
vert	-4805
config	-4806
▁simple	-4807
בוצות	-4808
▁!	-4809
api	-4810
▁האפליקציה	-4811
▁param	-4812
▁ve	-4813
ills	-4814
▁prop	-4815
_3:	-4816
נף	-4817
▁יכולת	-4818
רגל	-4819
ised	-4820
▁רחב	-4821
▁away	-4822
ived	-4823
▁האינטרנט	-4824
ET	-4825
▁כאילו	-4826
▁בחלק	-4827
▁מטעם	-4828
פתחים	-4829
▁שנמצא	-4830
3/	-4831
לושה	-4832
▁mov	-4833
ane	-4834
▁started	-4835
כוד	-4836
my	-4837
ync	-4838
resh	-4839
▁העם	-4840
▁שבהם	-4841
▁Mar	-4842
ike	-4843
ension	-4844
aterial	-4845
▁vari	-4846
def	-4847
וונה	-4848
▁עשה	-4849
ניית	-4850
▁ספרי	-4851
חדים	-4852
▁זכתה	-4853
▁pot	-4854
▁60	-4855
▁מאחורי	-4856
▁וחצי	-4857
▁tried	-4858
נור	-4859
▁התחת	-4860
שירי	-4861
▁הפלסטי	-4862
▁options	-4863
▁קבוצות	-4864
▁host	-4865
code	-4866
▁האור	-4867
מנת	-4868
▁למדי	-4869
▁בעיות	-4870
core	-4871
▁בשנות	-4872
▁במדינה	-4873
ING	-4874
מדים	-4875
wards	-4876
יימת	-4877
▁הצטר	-4878
▁והג	-4879
▁יצר	-4880
▁control	-4881
לאות	-4882
ele	-4883
ביעי	-4884
מקום	-4885
▁שצריך	-4886
▁וול	-4887
▁ביקורת	-4888
▁נמצאים	-4889
▁החוץ	-4890
irm	-4891
▁במספר	-4892
נכ	-4893
icle	-4894
▁אירועים	-4895
▁בתע	-4896
▁She	-4897
▁lab	-4898
▁הפרי	-4899
▁ששי	-4900
▁po	-4901
▁הפנים	-4902
▁קה	-4903
▁ארה	-4904
],	-4905
▁הנק	-4906
לס	-4907
▁alt	-4908
ification	-4909
ייה	-4910
▁With	-4911
inst	-4912
▁application	-4913
▁תקשורת	-4914
▁היטב	-4915
fd	-4916
▁בפועל	-4917
▁lik	-4918
▁המלך	-4919
שון	-4920
▁מדוע	-4921
ראים	-4922
▁הטכנולוגיה	-4923
duct	-4924
▁conc	-4925
UT	-4926
פונים	-4927
פנים	-4928
▁fine	-4929
▁בינלא	-4930
▁מונה	-4931
▁ראו	-4932
100	-4933
▁שהא	-4934
ances	-4935
▁ובמ	-4936
▁מכשיר	-4937
▁בלא	-4938
▁expected	-4939
▁להעביר	-4940
RI	-4941
רם	-4942
▁enjoy	-4943
▁גלי	-4944
bug	-4945
▁פרטים	-4946
▁ועם	-4947
▁אביו	-4948
▁clear	-4949
▁קטנים	-4950
▁features	-4951
▁המופ	-4952
▁anything	-4953
▁פט	-4954
▁improve	-4955
_0/	-4956
מינה	-4957
nThanks	-4958
ured	-4959
▁איפה	-4960
▁several	-4961
▁question	-4962
▁far	-4963
▁טיפ	-4964
▁click	-4965
זיקה	-4966
▁experi	-4967
most	-4968
▁המשתמשים	-4969
ואן	-4970
▁להשיג	-4971
▁דברי	-4972
Id	-4973
▁כשא	-4974
▁One	-4975
▁גן	-4976
▁air	-4977
▁אכ	-4978
בוב	-4979
ורם	-4980
▁אתרים	-4981
rap	-4982
▁והד	-4983
ari	-4984
▁הפרס	-4985
▁בהק	-4986
▁הדר	-4987
▁העל	-4988
יוב	-4989
▁המז	-4990
▁מאיר	-4991
utes	-4992
▁room	-4993
▁che	-4994
▁share	-4995
ליחו	-4996
▁existing	-4997
▁מדה	-4998
▁קד	-4999
נשי	-5000
▁ארבעה	-5001
▁כאמור	-5002
ken	-5003
▁indust	-5004
▁across	-5005
▁בתקופה	-5006
49	-5007
ea	-5008
▁חשבון	-5009
▁סד	-5010
▁everything	-5011
urther	-5012
▁quality	-5013
▁לגמרי	-5014
▁הבכ	-5015
▁אוטומ	-5016
▁מיקרוסופט	-5017
▁אבט	-5018
opt	-5019
▁הוג	-5020
▁ספרים	-5021
▁באמצע	-5022
▁לעבר	-5023
▁שכבר	-5024
lab	-5025
▁comment	-5026
יתם	-5027
▁pat	-5028
tra	-5029
▁מהס	-5030
▁גורמים	-5031
▁המוב	-5032
_2	-5033
▁להיש	-5034
▁property	-5035
▁שאר	-5036
▁leg	-5037
▁רואים	-5038
▁size	-5039
rem	-5040
▁הדיו	-5041
▁ויר	-5042
0,	-5043
נש	-5044
▁הזוג	-5045
▁=>	-5046
אין	-5047
68	-5048
ley	-5049
סקים	-5050
▁אירוע	-5051
ajor	-5052
5\	-5053
▁והיה	-5054
▁either	-5055
מרות	-5056
▁לאירו	-5057
▁חזר	-5058
▁המנה	-5059
זן	-5060
▁הסדרה	-5061
ריאה	-5062
צרפת	-5063
▁However	-5064
commit	-5065
cd	-5066
▁caus	-5067
obile	-5068
▁שאלה	-5069
raft	-5070
▁often	-5071
▁University	-5072
-18	-5073
▁והק	-5074
▁script	-5075
▁isn	-5076
סקו	-5077
▁details	-5078
uper	-5079
▁pain	-5080
▁ועדת	-5081
מורה	-5082
light	-5083
▁תמונה	-5084
▁tell	-5085
לקוח	-5086
▁File	-5087
▁פק	-5088
bd	-5089
▁space	-5090
▁מוט	-5091
▁בקי	-5092
EN	-5093
▁היינו	-5094
▁היחידה	-5095
קוב	-5096
-30	-5097
▁video	-5098
מוקרט	-5099
▁תמיכה	-5100
▁הבעיה	-5101
▁library	-5102
▁נצ	-5103
ides	-5104
סוק	-5105
▁הקרוב	-5106
מום	-5107
▁לתח	-5108
▁employ	-5109
▁לני	-5110
5,	-5111
ובד	-5112
iety	-5113
amples	-5114
▁מדינה	-5115
לנד	-5116
▁table	-5117
▁כחלק	-5118
▁נשא	-5119
▁ארבע	-5120
RL	-5121
פחת	-5122
▁האג	-5123
▁סדר	-5124
▁להיכנס	-5125
ברט	-5126
▁קרוב	-5127
▁קורה	-5128
▁במשרד	-5129
▁אמת	-5130
4]	-5131
▁מתאים	-5132
▁כפ	-5133
▁בשטח	-5134
▁האזרח	-5135
חב	-5136
▁לשלם	-5137
▁המזרח	-5138
▁ירו	-5139
▁client	-5140
כרת	-5141
mp	-5142
▁התל	-5143
▁גורם	-5144
▁קטנה	-5145
▁גרמניה	-5146
▁soft	-5147
▁האנשים	-5148
▁העובדים	-5149
▁four	-5150
lobal	-5151
aged	-5152
▁עזה	-5153
▁הולך	-5154
▁others	-5155
ernal	-5156
וקס	-5157
חון	-5158
נלי	-5159
טיבית	-5160
▁ואמר	-5161
▁לפנות	-5162
▁ישירות	-5163
▁submit	-5164
▁חזרה	-5165
▁dat	-5166
▁valid	-5167
(\"	-5168
▁במהירות	-5169
▁לעת	-5170
כתי	-5171
▁מרק	-5172
▁עונה	-5173
וקף	-5174
▁products	-5175
–19	-5176
▁מצל	-5177
▁changed	-5178
▁fav	-5179
▁חוסר	-5180
▁פתרון	-5181
73	-5182
לווה	-5183
▁בצפון	-5184
מז	-5185
תיחת	-5186
action	-5187
יימה	-5188
:30	-5189
▁האת	-5190
▁השר	-5191
▁sum	-5192
▁בעיה	-5193
▁אלב	-5194
aug	-5195
▁אוני	-5196
▁network	-5197
▁wid	-5198
▁עורך	-5199
▁לדברי	-5200
▁קרב	-5201
~~	-5202
▁לארץ	-5203
▁פתח	-5204
ev	-5205
aging	-5206
טן	-5207
▁חולים	-5208
▁שווה	-5209
רוכה	-5210
▁במדי	-5211
aper	-5212
▁sn	-5213
App	-5214
פעלה	-5215
ids	-5216
▁members	-5217
ising	-5218
open	-5219
-12	-5220
יכרון	-5221
▁כיוון	-5222
▁cannot	-5223
▁חוב	-5224
▁מחפ	-5225
aring	-5226
63	-5227
▁merg	-5228
בחרת	-5229
▁רשות	-5230
▁ובין	-5231
▁הלילה	-5232
▁expect	-5233
bb	-5234
ייד	-5235
▁לבדוק	-5236
▁קבלת	-5237
▁לתפקיד	-5238
▁מעניין	-5239
[1]	-5240
בלי	-5241
▁הלח	-5242
`.	-5243
▁multiple	-5244
ודנטים	-5245
▁טלפון	-5246
▁קבע	-5247
inter	-5248
▁adding	-5249
isk	-5250
▁individ	-5251
וזי	-5252
▁זיה	-5253
▁night	-5254
▁opport	-5255
נסט	-5256
ands	-5257
▁לבנות	-5258
טרס	-5259
▁בארה	-5260
▁אנט	-5261
▁מקרה	-5262
▁לטע	-5263
דורגל	-5264
▁building	-5265
▁כז	-5266
חשוב	-5267
▁גישה	-5268
▁ident	-5269
▁שלישי	-5270
edia	-5271
ניקה	-5272
Sh	-5273
head	-5274
פח	-5275
▁charact	-5276
▁שעל	-5277
דיים	-5278
▁להחז	-5279
▁^	-5280
▁לטובת	-5281
ביות	-5282
▁איט	-5283
▁מזרח	-5284
מסר	-5285
▁ראה	-5286
▁באוניברסיטת	-5287
▁שמדובר	-5288
▁היהודית	-5289
▁talk	-5290
▁אומרים	-5291
עתו	-5292
▁שנתיים	-5293
▁מומלץ	-5294
▁המון	-5295
fr	-5296
דיק	-5297
▁הסיפור	-5298
▁ווא	-5299
▁music	-5300
ains	-5301
AM	-5302
ney	-5303
▁האזור	-5304
▁וני	-5305
▁יוכלו	-5306
▁הטיפול	-5307
PS	-5308
▁שאלות	-5309
הה	-5310
▁הצליח	-5311
▁else	-5312
▁בצד	-5313
▁Google	-5314
unic	-5315
▁איראן	-5316
▁complete	-5317
▁קומ	-5318
מפי	-5319
7/	-5320
לפון	-5321
ners	-5322
▁live	-5323
▁דג	-5324
▁treat	-5325
▁סא	-5326
▁seem	-5327
קע	-5328
▁benef	-5329
reg	-5330
▁פעולות	-5331
▁אומרת	-5332
▁המפלגה	-5333
ires	-5334
▁חינם	-5335
וכים	-5336
▁חייו	-5337
▁מדיניות	-5338
▁remove	-5339
0.0	-5340
")	-5341
▁later	-5342
▁profession	-5343
▁היסטוריה	-5344
home	-5345
▁בטוח	-5346
▁intro	-5347
▁למת	-5348
ורמים	-5349
ימה	-5350
▁become	-5351
nAs	-5352
▁Ass	-5353
▁לגרום	-5354
▁הלאומי	-5355
▁במת	-5356
▁הצל	-5357
orld	-5358
▁הקהילה	-5359
▁האמת	-5360
▁body	-5361
▁target	-5362
▁similar	-5363
▁בסך	-5364
▁מלב	-5365
vate	-5366
יעין	-5367
▁דמות	-5368
טרות	-5369
▁ממה	-5370
▁הגיעה	-5371
▁דיווח	-5372
58	-5373
▁כלים	-5374
▁המשך	-5375
▁ללכת	-5376
▁בנוגע	-5377
▁mind	-5378
▁למא	-5379
▁איתו	-5380
ידול	-5381
▁לספק	-5382
▁הראשי	-5383
▁merge	-5384
▁חדר	-5385
▁אפליקציות	-5386
רחש	-5387
▁המדינות	-5388
ury	-5389
▁המשק	-5390
ייפון	-5391
▁ניק	-5392
▁print	-5393
▁ארץ	-5394
▁brow	-5395
▁perfect	-5396
vern	-5397
ובלי	-5398
▁להד	-5399
▁נכתב	-5400
ED	-5401
▁store	-5402
▁כבוד	-5403
▁comes	-5404
ude	-5405
.,	-5406
▁anal	-5407
erc	-5408
▁send	-5409
ליית	-5410
ולדות	-5411
▁ומצ	-5412
▁red	-5413
▁נפג	-5414
▁mom	-5415
▁included	-5416
סטיבל	-5417
▁האלו	-5418
▁לרכוש	-5419
nWhen	-5420
▁נמו	-5421
▁הילד	-5422
▁הצורך	-5423
▁men	-5424
▁מקצועי	-5425
▁connect	-5426
pected	-5427
ffic	-5428
וונים	-5429
לג	-5430
▁Tra	-5431
▁מנסה	-5432
mark	-5433
▁לאפשר	-5434
▁wait	-5435
▁recomm	-5436
▁נוצר	-5437
▁המור	-5438
09	-5439
▁הדרו	-5440
npm	-5441
▁23	-5442
אש	-5443
▁display	-5444
▁ap	-5445
foreign	-5446
▁someone	-5447
▁ניו	-5448
▁בפע	-5449
tings	-5450
▁למשחק	-5451
▁פיצ	-5452
▁לפעול	-5453
גנון	-5454
ouch	-5455
▁גרם	-5456
▁types	-5457
▁אינטרנט	-5458
▁particular	-5459
email	-5460
▁questions	-5461
ביבת	-5462
▁beaut	-5463
▁שער	-5464
▁style	-5465
▁תוצאות	-5466
יתות	-5467
▁בפרס	-5468
▁הלה	-5469
זרו	-5470
▁לשת	-5471
עוד	-5472
▁מנג	-5473
דיין	-5474
omen	-5475
▁גב	-5476
▁אמרה	-5477
▁בדרום	-5478
nHow	-5479
▁סדרת	-5480
▁ומכ	-5481
IL	-5482
▁ברגע	-5483
▁בגין	-5484
▁necess	-5485
ייח	-5486
הים	-5487
▁הוסיף	-5488
▁הגי	-5489
▁גוף	-5490
יימו	-5491
========	-5492
▁מתא	-5493
▁מלך	-5494
▁פלסטי	-5495
כולוג	-5496
▁given	-5497
1:	-5498
▁שבר	-5499
נסקי	-5500
▁2008	-5501
בקש	-5502
גרות	-5503
bs	-5504
▁previous	-5505
alf	-5506
▁רצי	-5507
▁wrong	-5508
▁nice	-5509
▁לשא	-5510
nWhat	-5511
▁תגובה	-5512
ograph	-5513
▁ישנם	-5514
▁יחסי	-5515
▁6.	-5516
▁בעלת	-5517
ully	-5518
פורסם	-5519
▁download	-5520
און	-5521
▁העתי	-5522
▁integr	-5523
▁hum	-5524
▁tag	-5525
▁בפייסבוק	-5526
▁נהרג	-5527
ots	-5528
▁contact	-5529
פורס	-5530
local	-5531
▁soon	-5532
▁מפקד	-5533
▁לשימוש	-5534
מארט	-5535
nder	-5536
▁approach	-5537
▁שטח	-5538
▁separ	-5539
▁בוקר	-5540
וסייה	-5541
קא	-5542
▁performance	-5543
▁משל	-5544
▁מידי	-5545
▁Co	-5546
96	-5547
▁sound	-5548
▁season	-5549
▁המחקר	-5550
▁שיד	-5551
מובן	-5552
▁individual	-5553
main	-5554
▁offic	-5555
▁trad	-5556
na	-5557
gress	-5558
ציאל	-5559
▁אלכס	-5560
▁range	-5561
▁הנוכחי	-5562
▁Am	-5563
מייל	-5564
אבל	-5565
type	-5566
▁להתע	-5567
▁צור	-5568
▁המועצה	-5569
▁law	-5570
פוך	-5571
▁למק	-5572
▁feed	-5573
▁הפלי	-5574
fo	-5575
▁האמית	-5576
▁22	-5577
בנו	-5578
▁ביחס	-5579
▁החר	-5580
פליקציות	-5581
▁task	-5582
new	-5583
▁קלא	-5584
util	-5585
▁פלא	-5586
טרק	-5587
▁major	-5588
▁צפוי	-5589
anguage	-5590
▁elect	-5591
▁הצדדים	-5592
aa	-5593
▁Thank	-5594
▁says	-5595
▁למשתמש	-5596
▁בבע	-5597
ריס	-5598
▁הצוות	-5599
נטית	-5600
▁box	-5601
▁educ	-5602
▁תשלום	-5603
▁inside	-5604
▁ever	-5605
▁אמצע	-5606
▁minutes	-5607
-14	-5608
▁hot	-5609
orage	-5610
זורים	-5611
ada	-5612
טק	-5613
▁עול	-5614
▁הוצ	-5615
▁email	-5616
pect	-5617
▁ברמה	-5618
▁סימן	-5619
▁השאלה	-5620
אנו	-5621
▁תחום	-5622
key	-5623
פוץ	-5624
▁format	-5625
▁גיוס	-5626
▁reproduce	-5627
לכה	-5628
▁התעופה	-5629
▁כשהוא	-5630
modules	-5631
Hub	-5632
base	-5633
sur	-5634
▁בימי	-5635
▁cal	-5636
▁עלינו	-5637
▁buy	-5638
▁pret	-5639
וטים	-5640
IC	-5641
▁אחריות	-5642
מפיין	-5643
▁להגיד	-5644
▁whether	-5645
▁התנועה	-5646
▁house	-5647
epend	-5648
icy	-5649
▁נול	-5650
חתי	-5651
itions	-5652
ground	-5653
▁בנט	-5654
▁והי	-5655
▁מסוים	-5656
▁פיל	-5657
▁di	-5658
orry	-5659
▁היל	-5660
▁believe	-5661
ctions	-5662
▁בתא	-5663
/4	-5664
▁דרו	-5665
lex	-5666
▁עשוי	-5667
▁quite	-5668
▁struct	-5669
▁answ	-5670
צאה	-5671
':	-5672
▁וזאת	-5673
ברך	-5674
▁הבאים	-5675
▁הוועדה	-5676
lished	-5677
▁קבוצה	-5678
IP	-5679
▁סעיף	-5680
▁אהבה	-5681
▁המוק	-5682
ונו	-5683
▁המחיר	-5684
פיל	-5685
▁נמצאת	-5686
▁השוק	-5687
▁jo	-5688
▁בתקופת	-5689
500	-5690
פקה	-5691
ply	-5692
do	-5693
);	-5694
▁vol	-5695
▁להט	-5696
▁מהה	-5697
יף	-5698
מוצע	-5699
▁בשני	-5700
▁לעבודה	-5701
▁כתובת	-5702
abled	-5703
צעו	-5704
אנחנו	-5705
ernet	-5706
▁מהווה	-5707
▁ייח	-5708
▁הנע	-5709
▁הגדולים	-5710
sers	-5711
כלו	-5712
point	-5713
▁שהתק	-5714
▁זהב	-5715
ones	-5716
▁שיל	-5717
▁bring	-5718
▁Gr	-5719
▁pick	-5720
▁מפע	-5721
ריכים	-5722
▁ואילו	-5723
▁המות	-5724
צרת	-5725
▁ואח	-5726
▁טלוויזיה	-5727
הם	-5728
▁teach	-5729
▁date	-5730
met	-5731
▁כתי	-5732
▁ברחוב	-5733
▁מקבל	-5734
▁rather	-5735
▁דרום	-5736
▁שאפשר	-5737
▁התייחס	-5738
▁כר	-5739
▁diff	-5740
icult	-5741
▁bar	-5742
ביץ	-5743
▁חיבור	-5744
▁certain	-5745
▁response	-5746
לטפורמה	-5747
לתה	-5748
udio	-5749
▁דולרים	-5750
▁land	-5751
▁29	-5752
▁צבי	-5753
פסיק	-5754
MA	-5755
▁יוע	-5756
▁חובה	-5757
▁התיכון	-5758
▁למכ	-5759
▁זכות	-5760
ca	-5761
טוא	-5762
▁סו	-5763
▁ייתכן	-5764
▁wonder	-5765
ls	-5766
▁אוויר	-5767
פכה	-5768
▁המיו	-5769
.[2]	-5770
▁מתע	-5771
nThere	-5772
▁נאל	-5773
▁events	-5774
▁מפר	-5775
▁להוציא	-5776
hing	-5777
resent	-5778
ובדים	-5779
▁רוסיה	-5780
▁master	-5781
▁שהש	-5782
▁פסק	-5783
יווק	-5784
צירת	-5785
▁http	-5786
קן	-5787
▁These	-5788
▁Christ	-5789
vant	-5790
▁כזו	-5791
▁story	-5792
▁הפיתוח	-5793
▁בסדר	-5794
▁השאר	-5795
ווח	-5796
▁מקומות	-5797
▁26	-5798
▁זהה	-5799
▁string	-5800
▁שלב	-5801
Im	-5802
ריכת	-5803
▁ניתוח	-5804
שן	-5805
▁הנס	-5806
,\"	-5807
▁עשויים	-5808
uf	-5809
encies	-5810
▁להוסיף	-5811
▁כרגע	-5812
אז	-5813
לע	-5814
▁אישה	-5815
▁problems	-5816
▁Pr	-5817
▁מאפשרת	-5818
---	-5819
▁accept	-5820
צעת	-5821
▁הגמר	-5822
col	-5823
ויים	-5824
▁wind	-5825
▁בעניין	-5826
▁social	-5827
31	-5828
▁בנימין	-5829
▁קרה	-5830
▁Upd	-5831
rict	-5832
▁write	-5833
`.\	-5834
▁tot	-5835
▁missing	-5836
▁שבועות	-5837
cf	-5838
▁2,	-5839
▁הגול	-5840
▁תחו	-5841
▁ברמת	-5842
▁lay	-5843
▁המחשב	-5844
ounc	-5845
release	-5846
▁ליבר	-5847
▁מפתח	-5848
רין	-5849
▁פיר	-5850
▁השונות	-5851
▁לציין	-5852
▁Br	-5853
פאים	-5854
▁ver	-5855
▁מטע	-5856
▁refer	-5857
▁לכתוב	-5858
מלא	-5859
▁בפעם	-5860
▁בחיים	-5861
צילום	-5862
▁נפת	-5863
▁מעולם	-5864
▁money	-5865
▁ישראלים	-5866
▁color	-5867
▁רפוא	-5868
▁יב	-5869
ogn	-5870
▁section	-5871
▁הקו	-5872
▁לפרטים	-5873
▁יוכל	-5874
▁לאומי	-5875
▁לפעמים	-5876
▁בשירות	-5877
ublic	-5878
▁further	-5879
Des	-5880
web	-5881
שיבת	-5882
▁הוח	-5883
▁חמש	-5884
▁7.	-5885
▁ובס	-5886
אטרון	-5887
▁כפר	-5888
וצים	-5889
▁קיימת	-5890
▁חינוך	-5891
97	-5892
****	-5893
lu	-5894
כשירים	-5895
▁Ro	-5896
▁inc	-5897
▁module	-5898
▁דת	-5899
▁מגיעים	-5900
arl	-5901
זרים	-5902
▁u	-5903
▁נתן	-5904
▁ובכך	-5905
▁Â	-5906
-16	-5907
▁מורכ	-5908
אמה	-5909
▁שישי	-5910
▁משר	-5911
ואב	-5912
▁fund	-5913
▁לקנות	-5914
opp	-5915
▁לספר	-5916
▁לחברה	-5917
▁לנק	-5918
נגר	-5919
▁דרכים	-5920
הר	-5921
▁ביטוח	-5922
▁הנושא	-5923
acy	-5924
aim	-5925
רגיש	-5926
unt	-5927
אורה	-5928
▁נצי	-5929
ושבים	-5930
▁context	-5931
ools	-5932
no	-5933
מכים	-5934
▁להתחיל	-5935
שין	-5936
כנית	-5937
▁הפוסט	-5938
sole	-5939
▁פוג	-5940
▁training	-5941
▁הוצאת	-5942
▁היחיד	-5943
▁finish	-5944
נדל	-5945
▁דיגיט	-5946
ional	-5947
▁מראה	-5948
▁נחשב	-5949
52	-5950
▁input	-5951
▁להגד	-5952
▁במג	-5953
▁הודיעה	-5954
3)	-5955
▁uses	-5956
▁התרבות	-5957
▁personal	-5958
חרת	-5959
▁וחי	-5960
▁נמוך	-5961
It	-5962
▁;	-5963
▁אמרו	-5964
▁city	-5965
▁low	-5966
utions	-5967
▁הופיע	-5968
▁ההגנה	-5969
une	-5970
▁מהן	-5971
▁dele	-5972
ניסיון	-5973
▁הפני	-5974
▁גודל	-5975
פעיל	-5976
▁Gu	-5977
▁ממוק	-5978
98	-5979
▁הנתונים	-5980
nJ	-5981
▁hours	-5982
ba	-5983
▁2000	-5984
▁סופר	-5985
וטה	-5986
▁חפ	-5987
ilities	-5988
▁values	-5989
ומדים	-5990
תיחה	-5991
▁שמונה	-5992
▁מתקד	-5993
here	-5994
▁אמור	-5995
▁הפעילות	-5996
▁watch	-5997
Pl	-5998
▁אסור	-5999
▁‰	-6000
▁הסיבה	-6001
▁28	-6002
nSo	-6003
ql	-6004
astic	-6005
▁באירופה	-6006
▁עץ	-6007
▁ביוגרפיה	-6008
גול	-6009
צועים	-6010
▁בניו	-6011
טען	-6012
כלים	-6013
▁כוס	-6014
עש	-6015
קיפה	-6016
▁החלק	-6017
גישות	-6018
▁מסר	-6019
▁ציון	-6020
▁action	-6021
▁תקופת	-6022
▁מהד	-6023
▁Hel	-6024
מדות	-6025
▁הרוח	-6026
▁govern	-6027
▁בבוקר	-6028
itHub	-6029
▁ואל	-6030
▁ולהת	-6031
enshot	-6032
▁לחשוב	-6033
▁מין	-6034
▁Comp	-6035
▁reach	-6036
▁העברית	-6037
check	-6038
▁להציג	-6039
▁Ser	-6040
bar	-6041
▁הפעולה	-6042
TT	-6043
▁ויי	-6044
▁שור	-6045
▁שכתב	-6046
כרה	-6047
Is	-6048
ube	-6049
▁cases	-6050
▁האוצר	-6051
▁נבחרת	-6052
▁node	-6053
▁האנו	-6054
/20	-6055
▁resol	-6056
▁testing	-6057
▁Qu	-6058
▁עבודות	-6059
פחות	-6060
מיני	-6061
▁בתגובה	-6062
.\"\	-6063
נגדות	-6064
▁additional	-6065
▁חזק	-6066
▁recent	-6067
▁country	-6068
▁Web	-6069
▁projects	-6070
▁שחקן	-6071
▁קונ	-6072
▁להשק	-6073
▁החדשות	-6074
▁whole	-6075
▁עוצ	-6076
▁known	-6077
▁provided	-6078
▁מותו	-6079
לילה	-6080
ators	-6081
משק	-6082
5]	-6083
▁ensure	-6084
▁הכסף	-6085
נחה	-6086
מנויות	-6087
▁פתרונות	-6088
▁עירו	-6089
▁ווי	-6090
נתן	-6091
▁ולח	-6092
זות	-6093
▁deal	-6094
▁שהייתה	-6095
▁האה	-6096
ensive	-6097
▁נר	-6098
▁תושבי	-6099
version	-6100
▁טראמפ	-6101
▁ולת	-6102
▁שמות	-6103
fix	-6104
כנים	-6105
▁דן	-6106
▁יוצ	-6107
▁שיעור	-6108
▁צעירים	-6109
▁שאת	-6110
ופעה	-6111
48	-6112
▁longer	-6113
▁ראשונה	-6114
רני	-6115
קף	-6116
▁common	-6117
▁successful	-6118
▁אישור	-6119
גלה	-6120
▁אלקטרו	-6121
▁original	-6122
▁בקלות	-6123
▁בעלות	-6124
▁מזון	-6125
irt	-6126
תיע	-6127
צם	-6128
cing	-6129
▁27	-6130
xx	-6131
▁אוניברסי	-6132
▁הרשות	-6133
▁blog	-6134
▁material	-6135
▁שמס	-6136
▁begin	-6137
▁וסי	-6138
▁כולו	-6139
amework	-6140
▁קיצ	-6141
▁מחשב	-6142
▁After	-6143
▁Check	-6144
▁יצי	-6145
▁Just	-6146
▁maintain	-6147
▁step	-6148
▁שאינם	-6149
ecially	-6150
▁took	-6151
מתו	-6152
▁סיום	-6153
anies	-6154
▁chall	-6155
▁seen	-6156
▁addition	-6157
▁לפתוח	-6158
▁מאחר	-6159
▁mar	-6160
ויות	-6161
▁כתבה	-6162
itter	-6163
לוס	-6164
▁חטי	-6165
▁hold	-6166
▁הקש	-6167
▁הינו	-6168
YW	-6169
כולות	-6170
▁וית	-6171
▁הלאומית	-6172
ילוי	-6173
▁tre	-6174
▁הקודם	-6175
room	-6176
▁Comm	-6177
aving	-6178
▁שלהן	-6179
▁המוצ	-6180
פיי	-6181
▁fore	-6182
ארטאפים	-6183
▁platform	-6184
▁ארוך	-6185
▁החליט	-6186
▁שימו	-6187
sing	-6188
▁מוצא	-6189
ocker	-6190
▁shows	-6191
▁פתוח	-6192
ze	-6193
▁אבן	-6194
▁המדי	-6195
unction	-6196
צג	-6197
▁מהי	-6198
6\	-6199
ולו	-6200
▁הירי	-6201
▁הימים	-6202
aken	-6203
!!!	-6204
▁יוסי	-6205
יימס	-6206
רשמה	-6207
▁הבה	-6208
▁לחוק	-6209
▁אליהם	-6210
▁הנפ	-6211
▁status	-6212
▁Min	-6213
▁ירד	-6214
ene	-6215
▁Act	-6216
EL	-6217
rec	-6218
▁דם	-6219
▁עמד	-6220
▁שמצ	-6221
▁לסייע	-6222
ams	-6223
נטה	-6224
▁מדע	-6225
▁גברים	-6226
▁mach	-6227
-17	-6228
▁קפה	-6229
▁ההפעלה	-6230
▁שכר	-6231
EC	-6232
rel	-6233
▁built	-6234
oring	-6235
מפריה	-6236
▁compet	-6237
▁mention	-6238
▁pretty	-6239
oun	-6240
חוק	-6241
▁מציע	-6242
▁בהצלחה	-6243
מיק	-6244
IS	-6245
df	-6246
10.	-6247
שתתף	-6248
aur	-6249
▁הכר	-6250
▁אסטר	-6251
ורס	-6252
הש	-6253
▁ויצ	-6254
▁apply	-6255
עדה	-6256
()\	-6257
ops	-6258
-21	-6259
▁worked	-6260
▁הטובה	-6261
▁להב	-6262
▁ויל	-6263
▁מחר	-6264
חייה	-6265
▁button	-6266
▁המאפשר	-6267
empt	-6268
▁general	-6269
▁הכות	-6270
▁months	-6271
▁לשמוע	-6272
▁תד	-6273
▁מחוז	-6274
▁ready	-6275
▁האקד	-6276
▁בצה	-6277
[2]	-6278
▁גמ	-6279
▁ויותר	-6280
נייני	-6281
▁ההשק	-6282
▁מדר	-6283
הו	-6284
▁נקרא	-6285
מחים	-6286
▁ID	-6287
▁בחו	-6288
onents	-6289
ana	-6290
▁197	-6291
▁נזק	-6292
▁management	-6293
ביו	-6294
▁ויע	-6295
ository	-6296
מודדות	-6297
בני	-6298
ודאי	-6299
Name	-6300
▁יולי	-6301
▁מתאי	-6302
▁לשנת	-6303
▁הבריטי	-6304
כוח	-6305
▁אוס	-6306
▁לתי	-6307
▁קבוע	-6308
▁Version	-6309
צרה	-6310
▁respons	-6311
ination	-6312
▁walk	-6313
▁תשת	-6314
odes	-6315
▁sense	-6316
▁הערך	-6317
▁לציון	-6318
1].	-6319
▁cause	-6320
▁Fl	-6321
antic	-6322
style	-6323
יקטים	-6324
▁Su	-6325
▁ההחלטה	-6326
this	-6327
reet	-6328
▁חיילים	-6329
ריו	-6330
▁taking	-6331
▁לייצר	-6332
ערה	-6333
▁early	-6334
▁תנאים	-6335
▁cut	-6336
amed	-6337
▁השניים	-6338
דימה	-6339
▁screen	-6340
▁צל	-6341
str	-6342
▁fill	-6343
mber	-6344
▁הטקסט	-6345
▁בתוכ	-6346
▁names	-6347
ביעות	-6348
Ar	-6349
פיע	-6350
▁failed	-6351
▁מלי	-6352
ony	-6353
▁בשר	-6354
▁העד	-6355
▁dig	-6356
▁לאנשים	-6357
▁docs	-6358
ירתו	-6359
47	-6360
▁מבחינה	-6361
בורים	-6362
▁mix	-6363
▁הכוח	-6364
yd	-6365
▁bad	-6366
▁exact	-6367
bit	-6368
▁provides	-6369
▁camp	-6370
word	-6371
▁שהופ	-6372
abase	-6373
▁מוקדם	-6374
▁בשבת	-6375
▁strong	-6376
▁הדת	-6377
▁בכת	-6378
וגיות	-6379
{\	-6380
MS	-6381
▁לשירות	-6382
▁בכדי	-6383
4\	-6384
era	-6385
▁חשיבות	-6386
▁industry	-6387
▁items	-6388
מונת	-6389
US	-6390
▁חיפוש	-6391
▁ברג	-6392
orts	-6393
▁הכס	-6394
סקת	-6395
▁maybe	-6396
▁חייבים	-6397
▁שניות	-6398
בחן	-6399
▁אבו	-6400
▁record	-6401
▁flo	-6402
כוון	-6403
▁אמנות	-6404
▁הנח	-6405
▁הרעיון	-6406
איי	-6407
▁לתוך	-6408
קלי	-6409
▁ins	-6410
▁amount	-6411
▁נשמע	-6412
▁op	-6413
משים	-6414
iting	-6415
▁שנש	-6416
iddle	-6417
▁insp	-6418
▁תחילת	-6419
▁המשחקים	-6420
ניתוח	-6421
4,	-6422
▁OS	-6423
▁צעיר	-6424
▁ביה	-6425
requ	-6426
▁קיו	-6427
אללה	-6428
▁מבק	-6429
asing	-6430
▁הודעה	-6431
▁various	-6432
▁באש	-6433
▁description	-6434
though	-6435
▁נשק	-6436
▁תחרות	-6437
LC	-6438
ided	-6439
▁repo	-6440
AP	-6441
קורת	-6442
▁מהיר	-6443
nBut	-6444
51	-6445
▁came	-6446
▁base	-6447
▁חשבו	-6448
▁פרויקט	-6449
▁באליפות	-6450
▁רפואי	-6451
mission	-6452
iday	-6453
▁לשלב	-6454
▁avoid	-6455
▁entire	-6456
▁מלון	-6457
pper	-6458
▁בצי	-6459
▁בבתי	-6460
▁fig	-6461
▁נמסר	-6462
▁אחוזים	-6463
▁מוצרי	-6464
▁האפשרות	-6465
▁includes	-6466
▁position	-6467
▁comput	-6468
▁זי	-6469
▁נסי	-6470
iod	-6471
ינוי	-6472
▁לאחד	-6473
▁סביר	-6474
▁creating	-6475
▁2007	-6476
packages	-6477
▁forward	-6478
לוונ	-6479
aught	-6480
▁aw	-6481
זמים	-6482
ריל	-6483
▁חמאס	-6484
▁מדבר	-6485
▁מקבלים	-6486
▁הקרב	-6487
דיות	-6488
ואות	-6489
▁plugin	-6490
cover	-6491
▁מרכזי	-6492
▁עשר	-6493
▁technology	-6494
נאות	-6495
▁parent	-6496
nPlease	-6497
▁push	-6498
This	-6499
כנות	-6500
▁החלטה	-6501
▁סוב	-6502
ילויות	-6503
▁תור	-6504
uation	-6505
▁שהה	-6506
מרה	-6507
▁מבנה	-6508
▁באה	-6509
▁פרט	-6510
path	-6511
with	-6512
▁Aut	-6513
▁title	-6514
▁בכיר	-6515
▁המרכזי	-6516
▁198	-6517
▁וכמובן	-6518
▁יחידות	-6519
▁necessary	-6520
יתית	-6521
▁esp	-6522
▁שחור	-6523
▁ניש	-6524
▁להניח	-6525
▁false	-6526
▁פות	-6527
Res	-6528
▁ach	-6529
▁גדולות	-6530
▁happy	-6531
▁דירה	-6532
usr	-6533
artment	-6534
▁במחיר	-6535
▁הבח	-6536
▁מגד	-6537
נב	-6538
-->\	-6539
▁הפכה	-6540
host	-6541
▁שיווק	-6542
ולחן	-6543
▁author	-6544
טוס	-6545
▁90	-6546
▁ליום	-6547
icated	-6548
▁יתר	-6549
5%	-6550
cer	-6551
▁חסר	-6552
cloud	-6553
▁הפור	-6554
דיקה	-6555
▁הטלוויזיה	-6556
▁אוק	-6557
▁אקד	-6558
▁שחקנים	-6559
▁שירים	-6560
rain	-6561
▁ורי	-6562
נואר	-6563
▁directly	-6564
clus	-6565
▁extra	-6566
▁שינויים	-6567
▁בפרו	-6568
▁היכולת	-6569
דיש	-6570
▁החק	-6571
▁האינ	-6572
▁ברית	-6573
▁עיריית	-6574
▁אוהב	-6575
ties	-6576
▁רישיון	-6577
▁שמן	-6578
יקת	-6579
▁שמואל	-6580
View	-6581
iff	-6582
▁קופ	-6583
▁תוכנה	-6584
▁Ed	-6585
▁כוללת	-6586
▁hope	-6587
▁ביטחון	-6588
ותי	-6589
ביעת	-6590
▁נפש	-6591
▁likely	-6592
▁לטיפול	-6593
▁מתחיל	-6594
▁10.	-6595
▁study	-6596
server	-6597
▁note	-6598
נגטון	-6599
▁יודעת	-6600
▁בטר	-6601
היה	-6602
ression	-6603
▁front	-6604
▁היס	-6605
יונית	-6606
▁compl	-6607
▁שעברה	-6608
mary	-6609
ledge	-6610
atically	-6611
OD	-6612
rome	-6613
▁useful	-6614
bl	-6615
וויטר	-6616
▁iOS	-6617
▁errors	-6618
▁בשיתוף	-6619
נברג	-6620
▁norm	-6621
▁מצוי	-6622
▁Eu	-6623
▁setting	-6624
62	-6625
6]	-6626
▁מצרים	-6627
▁חומר	-6628
▁טכנולוגיה	-6629
/201	-6630
▁wanted	-6631
▁sent	-6632
▁חוזר	-6633
We	-6634
▁לצע	-6635
ריע	-6636
nAl	-6637
▁ביר	-6638
▁ago	-6639
▁companies	-6640
כנע	-6641
▁הנשים	-6642
▁קמ	-6643
▁כלום	-6644
git	-6645
▁went	-6646
▁בעבודה	-6647
off	-6648
▁80	-6649
▁מספק	-6650
▁רוז	-6651
▁החדשים	-6652
▁הודיע	-6653
▁סוגי	-6654
ישורים	-6655
▁במלחמת	-6656
▁אוגוסט	-6657
▁writing	-6658
▁\"/	-6659
po	-6660
index	-6661
Type	-6662
▁mot	-6663
▁שהס	-6664
▁משחקי	-6665
▁however	-6666
▁pict	-6667
ניר	-6668
▁הבול	-6669
▁להכיר	-6670
oes	-6671
▁יתק	-6672
▁הגנה	-6673
▁לחלק	-6674
":	-6675
conom	-6676
ered	-6677
▁סיים	-6678
ites	-6679
▁אמיתי	-6680
▁simply	-6681
▁תקווה	-6682
▁history	-6683
▁פית	-6684
▁ספי	-6685
▁points	-6686
top	-6687
▁young	-6688
▁Dr	-6689
▁ey	-6690
▁stay	-6691
▁מלחמה	-6692
ארץ	-6693
▁customers	-6694
▁Per	-6695
וסקים	-6696
▁קיל	-6697
▁גז	-6698
▁ביטוי	-6699
▁קיר	-6700
ourn	-6701
▁allows	-6702
הג	-6703
OM	-6704
▁כולנו	-6705
▁גופ	-6706
▁מתן	-6707
oll	-6708
iful	-6709
▁ארוכה	-6710
▁bo	-6711
רמניה	-6712
▁שבין	-6713
▁גיא	-6714
▁הקל	-6715
זיל	-6716
▁בבחירות	-6717
▁עשרה	-6718
▁complet	-6719
רוף	-6720
מקד	-6721
▁ממלי	-6722
▁Sec	-6723
class	-6724
BC	-6725
יאל	-6726
▁engine	-6727
נדס	-6728
▁תמורת	-6729
▁החז	-6730
▁וכד	-6731
9\	-6732
בדה	-6733
▁קובץ	-6734
▁System	-6735
▁לפתח	-6736
▁היע	-6737
▁אשתו	-6738
▁לאכול	-6739
▁במצ	-6740
▁media	-6741
▁card	-6742
מוני	-6743
▁מרד	-6744
▁cook	-6745
מותה	-6746
נוק	-6747
▁הנוער	-6748
mm	-6749
▁לחיות	-6750
שיב	-6751
▁device	-6752
▁million	-6753
צאות	-6754
hel	-6755
▁Car	-6756
xy	-6757
▁החשוב	-6758
ביט	-6759
oses	-6760
▁הערבי	-6761
▁final	-6762
▁היות	-6763
▁בחשבון	-6764
▁הטור	-6765
▁תשובה	-6766
▁pan	-6767
▁series	-6768
▁dou	-6769
▁ההורים	-6770
▁South	-6771
ילי	-6772
ננים	-6773
▁unique	-6774
▁בוג	-6775
uly	-6776
▁סמוך	-6777
▁copy	-6778
▁לנסות	-6779
▁חמישי	-6780
7\	-6781
▁היחסים	-6782
▁אקס	-6783
earch	-6784
ליכים	-6785
שוואה	-6786
מצאו	-6787
^^	-6788
IG	-6789
רוסיה	-6790
▁takes	-6791
ליטו	-6792
▁מיוחדת	-6793
ights	-6794
▁המציאות	-6795
▁לדי	-6796
▁גרו	-6797
▁הכולל	-6798
[1].	-6799
פעם	-6800
etimes	-6801
▁הצעיר	-6802
tag	-6803
▁fit	-6804
▁ברוב	-6805
פסת	-6806
▁ההז	-6807
▁הסביבה	-6808
▁Our	-6809
▁האמריקאי	-6810
▁יתרון	-6811
▁כדורגל	-6812
icon	-6813
הע	-6814
▁purch	-6815
▁areas	-6816
▁cred	-6817
▁לנשים	-6818
▁סוכ	-6819
▁שירותים	-6820
▁installed	-6821
bject	-6822
▁חמישה	-6823
):\	-6824
▁החו	-6825
Ph	-6826
▁נפר	-6827
▁according	-6828
▁המתק	-6829
▁images	-6830
▁המשמעות	-6831
▁8.	-6832
▁המשות	-6833
▁מותר	-6834
▁itself	-6835
imal	-6836
▁משפחות	-6837
▁rout	-6838
▁:)	-6839
▁המוח	-6840
ulation	-6841
-50	-6842
אמר	-6843
▁friends	-6844
מכם	-6845
▁Me	-6846
▁לכאורה	-6847
based	-6848
▁ערוץ	-6849
▁באינטרנט	-6850
▁nat	-6851
וויי	-6852
nov	-6853
▁RE	-6854
נרגיה	-6855
▁רצון	-6856
▁סיר	-6857
▁2006	-6858
▁ההתק	-6859
▁שיצא	-6860
▁בפיתוח	-6861
ניון	-6862
▁Dis	-6863
▁אורי	-6864
▁לדוגמה	-6865
▁Open	-6866
▁ממשלה	-6867
▁ההש	-6868
▁שלח	-6869
▁עתיד	-6870
לד	-6871
לוי	-6872
ריון	-6873
nTo	-6874
▁Joh	-6875
▁הפרויקט	-6876
▁fixes	-6877
▁configuration	-6878
▁שמי	-6879
ברתי	-6880
▁City	-6881
▁ופר	-6882
inary	-6883
▁מבע	-6884
▁הנוס	-6885
עתם	-6886
nOn	-6887
▁אגב	-6888
Data	-6889
eak	-6890
▁השא	-6891
▁האו	-6892
▁directory	-6893
▁merged	-6894
גב	-6895
▁everyone	-6896
ינה	-6897
▁להתח	-6898
ges	-6899
▁דלת	-6900
▁Sw	-6901
▁->	-6902
מוי	-6903
▁news	-6904
▁שדה	-6905
▁ישראלית	-6906
▁Any	-6907
▁סגן	-6908
▁מעולה	-6909
▁טרם	-6910
▁flow	-6911
▁קיימים	-6912
▁באת	-6913
▁particip	-6914
▁בסדרה	-6915
שנות	-6916
▁לאר	-6917
▁ואנחנו	-6918
פגש	-6919
▁software	-6920
זת	-6921
unk	-6922
▁70	-6923
ריד	-6924
ביים	-6925
umn	-6926
▁versions	-6927
נהלות	-6928
וסטרליה	-6929
מיו	-6930
aries	-6931
00\	-6932
ooks	-6933
fc	-6934
▁בניית	-6935
▁חשמל	-6936
▁מפלגת	-6937
▁impact	-6938
▁לצפות	-6939
▁בתחרות	-6940
▁Your	-6941
-1.	-6942
osp	-6943
ייסד	-6944
ודשים	-6945
נטר	-6946
וויות	-6947
טניה	-6948
▁לשלוח	-6949
▁שהן	-6950
▁מבט	-6951
▁אמריקה	-6952
פסור	-6953
ees	-6954
▁פרשת	-6955
▁arch	-6956
יגה	-6957
אתה	-6958
▁לחל	-6959
▁בדר	-6960
▁תשע	-6961
▁הזדמנות	-6962
▁במקרים	-6963
▁בתהליך	-6964
▁עברו	-6965
unities	-6966
▁agree	-6967
וקטור	-6968
ribute	-6969
▁מטרים	-6970
▁לגלות	-6971
▁Yes	-6972
▁האב	-6973
▁המשרד	-6974
▁עיק	-6975
▁implementation	-6976
ועד	-6977
lege	-6978
צט	-6979
▁favor	-6980
▁לחש	-6981
ength	-6982
▁אפריקה	-6983
▁מעצ	-6984
▁עובר	-6985
▁נשאר	-6986
▁הלימודים	-6987
▁offers	-6988
▁ראשית	-6989
rope	-6990
▁הטכנולוג	-6991
כין	-6992
sel	-6993
▁רשימת	-6994
Mod	-6995
▁strateg	-6996
▁Also	-6997
▁מלבד	-6998
▁להר	-6999
▁סיבה	-7000
▁איתן	-7001
▁אט	-7002
▁התוכ	-7003
▁בקרוב	-7004
▁מילים	-7005
elling	-7006
▁דק	-7007
▁בעונה	-7008
ידוש	-7009
▁Will	-7010
▁especially	-7011
▁הבת	-7012
▁בנות	-7013
▁הקהל	-7014
▁Rem	-7015
▁Val	-7016
▁בניס	-7017
▁פיי	-7018
▁לעלות	-7019
▁השחקנים	-7020
▁North	-7021
mon	-7022
▁מיכ	-7023
nAnd	-7024
▁fall	-7025
▁בתוכנית	-7026
To	-7027
▁לסט	-7028
▁טען	-7029
▁הכוחות	-7030
▁הרביעי	-7031
12.	-7032
רפתי	-7033
ivity	-7034
▁מעלה	-7035
▁אמא	-7036
▁תוכניות	-7037
פתור	-7038
img	-7039
▁Go	-7040
▁ויה	-7041
ipe	-7042
urch	-7043
utter	-7044
▁חברתית	-7045
93	-7046
▁השלום	-7047
רגונים	-7048
▁tick	-7049
▁World	-7050
▁לפגוע	-7051
▁מפת	-7052
מורת	-7053
ender	-7054
▁לשים	-7055
ופטים	-7056
oke	-7057
גיב	-7058
▁מועד	-7059
▁הדור	-7060
▁העניין	-7061
ובוס	-7062
▁הבכורה	-7063
▁הגדולות	-7064
▁הלקוחות	-7065
▁Dep	-7066
▁>>	-7067
ודא	-7068
▁security	-7069
יקטיים	-7070
▁שכול	-7071
▁הביתה	-7072
▁tw	-7073
initely	-7074
▁info	-7075
ball	-7076
▁comments	-7077
▁private	-7078
▁הגל	-7079
▁חיצ	-7080
▁הבינלאומי	-7081
▁steps	-7082
jo	-7083
והר	-7084
▁אדום	-7085
review	-7086
idge	-7087
חתם	-7088
▁ומד	-7089
11.	-7090
▁בשעות	-7091
▁continue	-7092
ורא	-7093
03	-7094
▁נותן	-7095
▁לבני	-7096
ruction	-7097
▁nothing	-7098
▁launch	-7099
▁אלינו	-7100
▁energ	-7101
▁קהל	-7102
נשטיין	-7103
▁הליגה	-7104
▁מוזיקה	-7105
▁500	-7106
▁באור	-7107
▁פעיל	-7108
▁2022	-7109
▁המטרה	-7110
מסונג	-7111
▁קלה	-7112
▁לילה	-7113
▁בדבר	-7114
▁בהס	-7115
כוז	-7116
▁mode	-7117
▁(200	-7118
▁להקים	-7119
eral	-7120
▁ולמ	-7121
▁anyone	-7122
▁מתוכ	-7123
▁location	-7124
▁החופ	-7125
udd	-7126
▁ואולי	-7127
▁deploy	-7128
Test	-7129
רגיל	-7130
חוץ	-7131
לויות	-7132
QL	-7133
▁סתם	-7134
▁שטר	-7135
▁הנד	-7136
▁אבא	-7137
▁הוקמה	-7138
▁תגיות	-7139
זמן	-7140
▁component	-7141
ynam	-7142
▁והכ	-7143
▁מאמרים	-7144
ailed	-7145
▁יהודית	-7146
▁עברה	-7147
ceed	-7148
▁מציעה	-7149
ema	-7150
▁רביעי	-7151
▁È	-7152
חתה	-7153
▁לשני	-7154
ילנד	-7155
▁ממע	-7156
▁שבש	-7157
▁נאמר	-7158
דיא	-7159
▁צפון	-7160
▁heart	-7161
▁designed	-7162
▁מחפשים	-7163
-13	-7164
בלתי	-7165
▁throw	-7166
▁choose	-7167
▁מענה	-7168
coming	-7169
▁הידוע	-7170
ival	-7171
->	-7172
למנט	-7173
oon	-7174
▁סכום	-7175
▁ברכ	-7176
מיחה	-7177
שיפה	-7178
aced	-7179
▁אמי	-7180
▁Part	-7181
▁להן	-7182
▁הסוב	-7183
anced	-7184
▁השב	-7185
ענה	-7186
▁tools	-7187
▁URL	-7188
▁חכם	-7189
▁עין	-7190
▁tested	-7191
▁leave	-7192
▁mag	-7193
medi	-7194
▁בליגה	-7195
▁באחד	-7196
לטת	-7197
▁yourself	-7198
▁gets	-7199
ופס	-7200
▁relevant	-7201
כנו	-7202
▁recently	-7203
וקות	-7204
▁ובח	-7205
▁collect	-7206
▁טרור	-7207
▁Mark	-7208
▁מרבית	-7209
▁לקבלת	-7210
▁שמעון	-7211
▁switch	-7212
▁צפיות	-7213
▁הצליחו	-7214
טרון	-7215
▁באירוע	-7216
▁five	-7217
▁בחדר	-7218
▁בקול	-7219
נקו	-7220
▁הצבאי	-7221
צועת	-7222
▁לכיוון	-7223
▁נושאים	-7224
TML	-7225
▁התפקיד	-7226
▁ways	-7227
▁הצטרפו	-7228
יני	-7229
▁difficult	-7230
php	-7231
▁חגי	-7232
▁price	-7233
▁המסך	-7234
9,	-7235
▁משפחתו	-7236
▁גולד	-7237
▁מעוד	-7238
▁שליטה	-7239
▁חור	-7240
umb	-7241
▁דניאל	-7242
▁template	-7243
ולוגי	-7244
▁השלישית	-7245
גרה	-7246
grad	-7247
ונש	-7248
▁החת	-7249
פלים	-7250
▁relations	-7251
▁קורס	-7252
גדל	-7253
ננה	-7254
לאי	-7255
ref	-7256
46	-7257
import	-7258
/\	-7259
▁super	-7260
פולי	-7261
▁חוות	-7262
▁המבצע	-7263
043	-7264
ודר	-7265
eline	-7266
▁src	-7267
▁הסל	-7268
attern	-7269
▁near	-7270
זציה	-7271
▁סין	-7272
▁האישי	-7273
▁travel	-7274
▁מרץ	-7275
imate	-7276
ino	-7277
▁unit	-7278
BA	-7279
▁כבי	-7280
▁במכ	-7281
▁בקר	-7282
▁מעמד	-7283
▁חוס	-7284
▁learning	-7285
בנות	-7286
▁כרטיס	-7287
▁כאלו	-7288
▁היצ	-7289
▁הלקוח	-7290
▁אוקטובר	-7291
▁American	-7292
▁couple	-7293
▁יפ	-7294
▁מעשה	-7295
▁מתנה	-7296
▁production	-7297
▁דמי	-7298
▁תנועה	-7299
fa	-7300
▁בקה	-7301
reate	-7302
דג	-7303
שתתפות	-7304
▁ברצ	-7305
▁ופי	-7306
▁אוניברסיטת	-7307
▁המב	-7308
▁משתת	-7309
annel	-7310
▁cult	-7311
▁represent	-7312
▁בואו	-7313
רוט	-7314
▁עונת	-7315
roller	-7316
דק	-7317
▁אנדרואיד	-7318
yl	-7319
▁השתמש	-7320
▁appe	-7321
▁ראוי	-7322
06	-7323
▁<!--	-7324
▁staff	-7325
▁מוקד	-7326
Sp	-7327
▁עתה	-7328
ובס	-7329
▁שאל	-7330
ריב	-7331
▁המקומית	-7332
וריית	-7333
וטנציאל	-7334
▁שרק	-7335
▁הבסיס	-7336
▁recommend	-7337
_1/	-7338
▁זר	-7339
ודיו	-7340
cket	-7341
▁שעו	-7342
▁face	-7343
▁updates	-7344
▁נדר	-7345
▁period	-7346
▁לחס	-7347
▁בעתיד	-7348
▁See	-7349
▁stop	-7350
▁בדיקות	-7351
nV	-7352
ופל	-7353
▁דגם	-7354
▁הבנק	-7355
▁המוצרים	-7356
▁coming	-7357
▁easily	-7358
זוב	-7359
▁המשיך	-7360
from	-7361
cker	-7362
נגל	-7363
▁פגיעה	-7364
קון	-7365
▁assist	-7366
נך	-7367
ili	-7368
ומם	-7369
ester	-7370
▁איסור	-7371
-100	-7372
▁טבעי	-7373
▁והט	-7374
מלית	-7375
▁standard	-7376
elines	-7377
imum	-7378
▁שנפ	-7379
▁systems	-7380
▁risk	-7381
▁outside	-7382
▁האלבום	-7383
▁בערב	-7384
▁posit	-7385
▁moment	-7386
לונה	-7387
ancial	-7388
נסו	-7389
▁comb	-7390
▁הפוע	-7391
▁השלטון	-7392
▁לדבריו	-7393
▁role	-7394
▁ללקוחות	-7395
▁initial	-7396
ram	-7397
ropri	-7398
▁ליהנות	-7399
▁קיבלה	-7400
▁Some	-7401
▁בוו	-7402
▁מכירים	-7403
▁לאדם	-7404
ka	-7405
פוט	-7406
▁worth	-7407
▁הפיק	-7408
▁נקבע	-7409
▁שיטת	-7410
▁בחיפה	-7411
▁id	-7412
▁לעיר	-7413
▁המומ	-7414
▁התהליך	-7415
300	-7416
sem	-7417
▁קריאה	-7418
▁נובמבר	-7419
למת	-7420
▁דמ	-7421
▁energy	-7422
נינו	-7423
▁בערוץ	-7424
▁Code	-7425
▁שלם	-7426
wise	-7427
▁תנועת	-7428
2].	-7429
▁מועצת	-7430
▁בעברית	-7431
▁קולנוע	-7432
▁הגישה	-7433
ודיים	-7434
▁שוא	-7435
▁regular	-7436
▁half	-7437
▁ויק	-7438
נדו	-7439
בילה	-7440
▁כשי	-7441
▁למשך	-7442
▁taken	-7443
▁דירות	-7444
▁לקריאה	-7445
▁Par	-7446
▁crit	-7447
▁שינה	-7448
pk	-7449
var	-7450
▁לקדם	-7451
דיון	-7452
▁אלון	-7453
▁משקל	-7454
▁נשלח	-7455
מפרט	-7456
▁State	-7457
▁professional	-7458
/.	-7459
שאי	-7460
▁מדברים	-7461
/10	-7462
▁Now	-7463
פדפן	-7464
▁להישאר	-7465
ocol	-7466
ציו	-7467
date	-7468
▁מהק	-7469
▁מיוחדים	-7470
עזר	-7471
▁phys	-7472
פוני	-7473
▁החברתית	-7474
▁תפי	-7475
▁בקבוצה	-7476
itive	-7477
PR	-7478
▁almost	-7479
▁fast	-7480
פיד	-7481
▁West	-7482
▁לרשת	-7483
ises	-7484
ארי	-7485
nix	-7486
▁התנהגות	-7487
סטרו	-7488
▁במזרח	-7489
צרות	-7490
4:	-7491
▁National	-7492
▁הודעות	-7493
הוא	-7494
▁אמש	-7495
▁מאר	-7496
▁הנמצא	-7497
▁Cal	-7498
ero	-7499
▁למצב	-7500
▁methods	-7501
▁released	-7502
▁save	-7503
▁שוח	-7504
▁signific	-7505
ried	-7506
izing	-7507
roups	-7508
ION	-7509
bf	-7510
▁מחו	-7511
elt	-7512
▁בלילה	-7513
▁width	-7514
▁ובעיקר	-7515
ison	-7516
▁ושם	-7517
▁חלב	-7518
.[3]	-7519
▁לזהות	-7520
NAME	-7521
יתר	-7522
▁ולס	-7523
▁Europe	-7524
▁והנה	-7525
▁|\	-7526
כז	-7527
ינן	-7528
▁בעונת	-7529
▁dom	-7530
files	-7531
▁לנהל	-7532
▁נמ	-7533
▁הלכה	-7534
▁cur	-7535
▁ענ	-7536
וער	-7537
▁המדיה	-7538
▁פתיחת	-7539
▁יקרה	-7540
▁פג	-7541
▁עבודת	-7542
▁הון	-7543
install	-7544
▁איתם	-7545
▁beautiful	-7546
▁tax	-7547
________	-7548
▁חדרים	-7549
▁טעם	-7550
▁לעיל	-7551
▁טובות	-7552
PU	-7553
▁יחסים	-7554
▁Mod	-7555
▁תיאור	-7556
▁links	-7557
▁ישנה	-7558
▁Ag	-7559
▁מקורות	-7560
▁להתא	-7561
▁meas	-7562
▁תלוי	-7563
▁ומתן	-7564
חלה	-7565
place	-7566
▁המבוס	-7567
▁Android	-7568
▁reference	-7569
creen	-7570
▁אוהבים	-7571
etails	-7572
just	-7573
▁appre	-7574
ירייה	-7575
▁שיחה	-7576
▁board	-7577
▁הרכבת	-7578
▁שאנו	-7579
▁עיתונ	-7580
▁מוכן	-7581
▁חוזה	-7582
microsoft	-7583
▁לנת	-7584
▁הספ	-7585
▁ובמק	-7586
▁determ	-7587
▁הזכויות	-7588
פתי	-7589
לקות	-7590
וגים	-7591
▁בהר	-7592
react	-7593
▁communic	-7594
▁language	-7595
▁יצאו	-7596
▁paper	-7597
▁removed	-7598
cs	-7599
▁יוז	-7600
▁government	-7601
▁פרסם	-7602
surance	-7603
▁concern	-7604
cm	-7605
יסר	-7606
▁התקופה	-7607
רוח	-7608
זוק	-7609
weet	-7610
▁ינואר	-7611
▁כיס	-7612
▁האוט	-7613
▁הולדת	-7614
duction	-7615
יתן	-7616
▁School	-7617
7]	-7618
▁York	-7619
▁God	-7620
▁להגן	-7621
בירו	-7622
!!!!	-7623
GB	-7624
▁השופט	-7625
▁ant	-7626
project	-7627
▁רשמי	-7628
▁סיכון	-7629
▁phone	-7630
ולין	-7631
▁מהירה	-7632
CON	-7633
כהן	-7634
▁לקבוע	-7635
selves	-7636
▁צעד	-7637
▁grad	-7638
כונית	-7639
שימות	-7640
▁אופן	-7641
▁במקומות	-7642
מידי	-7643
▁איתי	-7644
nown	-7645
▁ונע	-7646
ישית	-7647
▁קטנות	-7648
▁נוער	-7649
▁המועצות	-7650
כחות	-7651
▁instance	-7652
[3	-7653
utor	-7654
▁ess	-7655
err	-7656
▁מגיעה	-7657
Qu	-7658
▁בקו	-7659
▁Here	-7660
▁מסלול	-7661
▁clients	-7662
▁מהפ	-7663
▁ברוך	-7664
▁למערכת	-7665
▁road	-7666
▁האישה	-7667
sec	-7668
▁women	-7669
▁מתכנ	-7670
▁associ	-7671
rite	-7672
מארטפון	-7673
▁received	-7674
▁שרת	-7675
▁passed	-7676
nect	-7677
Users	-7678
▁קיבלו	-7679
▁Sun	-7680
▁among	-7681
▁Get	-7682
▁השבת	-7683
▁המרכזית	-7684
05	-7685
duced	-7686
▁hit	-7687
חשבים	-7688
grade	-7689
▁שליט	-7690
ויז	-7691
▁remain	-7692
ישון	-7693
▁מסוימים	-7694
בטחה	-7695
▁recogn	-7696
▁Reg	-7697
▁sym	-7698
▁ספטמבר	-7699
▁resources	-7700
-25	-7701
▁regard	-7702
▁הראשונות	-7703
▁עלייה	-7704
▁Count	-7705
▁הכללי	-7706
▁Med	-7707
iler	-7708
מירה	-7709
▁fire	-7710
צעה	-7711
▁לאה	-7712
דבר	-7713
▁prevent	-7714
irc	-7715
▁auth	-7716
▁functionality	-7717
zz	-7718
▁לפרס	-7719
דיה	-7720
פריט	-7721
▁לזכות	-7722
pped	-7723
▁guess	-7724
כמו	-7725
▁office	-7726
ming	-7727
▁handle	-7728
▁תוכל	-7729
cast	-7730
▁למשתמשים	-7731
▁להרח	-7732
▁הינה	-7733
▁Sm	-7734
יונים	-7735
▁prior	-7736
▁הצעת	-7737
טחים	-7738
▁הירו	-7739
▁לשפר	-7740
▁שהוק	-7741
▁percent	-7742
▁דוא	-7743
pty	-7744
enced	-7745
eters	-7746
▁Error	-7747
אשר	-7748
▁Work	-7749
▁חוקי	-7750
▁לקיים	-7751
▁החול	-7752
▁reading	-7753
▁IN	-7754
haps	-7755
▁ההר	-7756
▁admin	-7757
▁עורכי	-7758
▁hom	-7759
▁Park	-7760
▁אפריל	-7761
▁מצליח	-7762
▁member	-7763
▁התמונה	-7764
▁פוסט	-7765
▁increase	-7766
▁explain	-7767
▁ספצי	-7768
▁ושוב	-7769
▁functions	-7770
וויון	-7771
שיר	-7772
▁Bar	-7773
▁mor	-7774
▁ציוד	-7775
ma	-7776
▁החלטות	-7777
▁separate	-7778
2-	-7779
now	-7780
מציה	-7781
▁max	-7782
▁third	-7783
▁written	-7784
כרים	-7785
▁כרי	-7786
נטיות	-7787
▁לחול	-7788
▁purp	-7789
▁בשתי	-7790
▁המקור	-7791
▁ציל	-7792
91	-7793
יך	-7794
▁סרטים	-7795
כותית	-7796
▁אפשרי	-7797
▁ביש	-7798
ks	-7799
וניברסיטה	-7800
▁רחוב	-7801
icles	-7802
▁receive	-7803
sol	-7804
▁total	-7805
הח	-7806
▁לשוק	-7807
▁טא	-7808
▁להציע	-7809
▁הידי	-7810
▁ובק	-7811
▁עלול	-7812
נדרואיד	-7813
ysis	-7814
ונן	-7815
▁behind	-7816
דיף	-7817
▁התחרות	-7818
nSt	-7819
▁עמית	-7820
".[	-7821
order	-7822
▁משול	-7823
▁אפשרויות	-7824
כתבו	-7825
▁cool	-7826
▁לרבות	-7827
▁מאמין	-7828
▁דח	-7829
▁לחצו	-7830
▁cell	-7831
▁ההון	-7832
▁התרו	-7833
▁רכי	-7834
▁העיקר	-7835
sl	-7836
spec	-7837
▁במל	-7838
▁המועדון	-7839
CI	-7840
▁גיי	-7841
▁Aust	-7842
▁בכמה	-7843
stream	-7844
▁hol	-7845
▁בכפר	-7846
▁טקסט	-7847
▁הופעות	-7848
חית	-7849
azing	-7850
▁אחיו	-7851
▁דצמבר	-7852
▁האירועים	-7853
ניף	-7854
▁בעד	-7855
▁עכ	-7856
ole	-7857
▁guid	-7858
▁לכולם	-7859
▁משמש	-7860
▁saf	-7861
▁לבוא	-7862
▁דל	-7863
▁מקווה	-7864
43	-7865
לאה	-7866
idence	-7867
אתר	-7868
▁ישיר	-7869
▁תכנית	-7870
▁character	-7871
▁GitHub	-7872
▁ביקש	-7873
▁ונק	-7874
▁thank	-7875
Un	-7876
▁דב	-7877
▁human	-7878
▁החמ	-7879
ille	-7880
▁מזל	-7881
▁הציבורי	-7882
▁Red	-7883
essage	-7884
++	-7885
▁אמו	-7886
▁closed	-7887
tt	-7888
▁והמש	-7889
▁supported	-7890
לימות	-7891
יהו	-7892
google	-7893
▁brand	-7894
▁global	-7895
למים	-7896
bt	-7897
▁הגב	-7898
▁גבר	-7899
וזר	-7900
▁פשוטה	-7901
▁answer	-7902
▁השתתף	-7903
au	-7904
▁לחברות	-7905
▁פצ	-7906
▁ביל	-7907
Tr	-7908
▁ליל	-7909
▁?\	-7910
▁חופשי	-7911
▁knowledge	-7912
map	-7913
▁עתי	-7914
▁לרי	-7915
▁להוריד	-7916
etch	-7917
▁cam	-7918
▁עובדי	-7919
change	-7920
ושע	-7921
נאה	-7922
ניב	-7923
[2].	-7924
מיע	-7925
יתונות	-7926
▁בנה	-7927
▁הוס	-7928
enn	-7929
uth	-7930
▁אורך	-7931
▁הקרובים	-7932
▁החיפוש	-7933
▁שיח	-7934
▁sched	-7935
▁2005	-7936
▁לימודי	-7937
▁חתם	-7938
▁popular	-7939
yt	-7940
▁הות	-7941
▁foot	-7942
▁כנסת	-7943
▁wel	-7944
▁בדומה	-7945
▁requests	-7946
פלומ	-7947
ריזה	-7948
ypes	-7949
▁ability	-7950
right	-7951
▁מקרים	-7952
▁משרה	-7953
בועות	-7954
▁האמריקאית	-7955
▁משם	-7956
▁easier	-7957
▁הסדר	-7958
▁שפת	-7959
וונות	-7960
▁3,	-7961
ובלת	-7962
1.0	-7963
▁נכונה	-7964
▁significant	-7965
▁Fe	-7966
▁בוצ	-7967
da	-7968
▁מקצועית	-7969
▁potential	-7970
▁בתום	-7971
igher	-7972
▁שרה	-7973
נתו	-7974
ביעית	-7975
וכב	-7976
▁black	-7977
ication	-7978
▁opportunity	-7979
▁בוט	-7980
▁ones	-7981
▁נקודת	-7982
▁כני	-7983
כלל	-7984
▁אייל	-7985
▁וכמה	-7986
atal	-7987
▁בנג	-7988
▁El	-7989
טלק	-7990
ייקט	-7991
istry	-7992
▁בריטניה	-7993
▁ההע	-7994
מדי	-7995
/11	-7996
▁Update	-7997
▁econom	-7998
▁שנייה	-7999
▁CI	-8000
ensor	-8001
צרי	-8002
▁לטפל	-8003
ha	-8004
▁לפס	-8005
יתנו	-8006
display	-8007
▁מכיר	-8008
module	-8009
▁guide	-8010
▁השח	-8011
▁הרמב	-8012
ief	-8013
▁הלוח	-8014
▁TV	-8015
אירו	-8016
▁הצליחה	-8017
▁שערים	-8018
▁weeks	-8019
▁חלקים	-8020
aid	-8021
▁מסביר	-8022
סטן	-8023
▁טוען	-8024
▁בסט	-8025
ואת	-8026
▁lic	-8027
▁located	-8028
body	-8029
▁folder	-8030
▁(1)	-8031
▁Ge	-8032
▁החודש	-8033
▁המיוחד	-8034
▁בינתיים	-8035
▁appropri	-8036
▁יאיר	-8037
חדות	-8038
עימה	-8039
▁החיס	-8040
▁בערך	-8041
▁window	-8042
▁מחי	-8043
▁tim	-8044
גיה	-8045
▁הפיצ	-8046
▁לציבור	-8047
dk	-8048
▁קורא	-8049
▁קורי	-8050
▁מבוסס	-8051
▁ארכ	-8052
למה	-8053
▁התחיל	-8054
▁לחת	-8055
▁לשמש	-8056
ety	-8057
▁helps	-8058
`](	-8059
:**	-8060
▁אבטחה	-8061
צעד	-8062
▁לבסוף	-8063
▁הטרור	-8064
▁appreci	-8065
▁Microsoft	-8066
▁לנס	-8067
cb	-8068
▁assign	-8069
rest	-8070
clude	-8071
▁matter	-8072
▁שילוב	-8073
▁קדימה	-8074
▁בתש	-8075
▁ההול	-8076
▁רווח	-8077
▁connection	-8078
▁games	-8079
▁lines	-8080
▁הביטוח	-8081
יימות	-8082
▁ומג	-8083
efore	-8084
▁אצלנו	-8085
▁usually	-8086
ליכי	-8087
בירות	-8088
CT	-8089
▁ההיסט	-8090
ובדה	-8091
61	-8092
▁ניצחון	-8093
OL	-8094
▁35	-8095
▁אפליקציה	-8096
▁קריירה	-8097
▁העירייה	-8098
דרו	-8099
ental	-8100
igation	-8101
אפשר	-8102
▁עובדת	-8103
▁תיקון	-8104
▁פעמיים	-8105
וגות	-8106
▁ברורה	-8107
▁exception	-8108
ervices	-8109
▁ה־	-8110
Val	-8111
▁חשש	-8112
▁prep	-8113
▁Air	-8114
▁השפעה	-8115
▁flag	-8116
▁ideas	-8117
ala	-8118
▁happens	-8119
▁מעלות	-8120
▁לחבר	-8121
request	-8122
ופית	-8123
▁בהכ	-8124
▁בגובה	-8125
▁המדע	-8126
כמת	-8127
▁המנו	-8128
▁נערך	-8129
▁נתי	-8130
▁מנהלת	-8131
▁תאו	-8132
▁Doc	-8133
▁הופך	-8134
בדל	-8135
ננת	-8136
▁עליכם	-8137
ועדת	-8138
טרך	-8139
▁לעצמו	-8140
client	-8141
▁ודי	-8142
▁הכניסה	-8143
▁לשתף	-8144
▁לאל	-8145
▁הטובים	-8146
ובליקה	-8147
▁לחפש	-8148
▁automatically	-8149
▁זוכה	-8150
גורר	-8151
▁hop	-8152
▁בכירים	-8153
▁וחלק	-8154
▁מחזיק	-8155
▁נולדה	-8156
des	-8157
▁הומ	-8158
▁הפכו	-8159
▁feedback	-8160
▁האימפריה	-8161
▁requires	-8162
ולוגית	-8163
▁customer	-8164
▁הצלחה	-8165
▁ראיתי	-8166
▁ההד	-8167
▁הזהב	-8168
▁United	-8169
▁הכתבה	-8170
▁צבאי	-8171
▁שמק	-8172
▁הביא	-8173
▁פחד	-8174
ווין	-8175
▁lib	-8176
▁practice	-8177
▁touch	-8178
lin	-8179
▁prefer	-8180
בוט	-8181
▁קורות	-8182
▁החשמל	-8183
▁מסוימת	-8184
▁Mac	-8185
▁index	-8186
ודד	-8187
▁JS	-8188
▁התחל	-8189
▁בארגון	-8190
▁(201	-8191
▁ההסכם	-8192
▁replace	-8193
▁מוכר	-8194
מודי	-8195
▁קרובות	-8196
▁מרגיש	-8197
ולט	-8198
יראן	-8199
▁גובה	-8200
As	-8201
▁הצטרף	-8202
▁הנסי	-8203
▁בכתב	-8204
▁חלקי	-8205
צועה	-8206
▁שיחות	-8207
כרו	-8208
ויב	-8209
טוח	-8210
▁Jan	-8211
where	-8212
▁white	-8213
▁החליטה	-8214
▁משלו	-8215
▁אדרי	-8216
▁אישיים	-8217
ובב	-8218
▁consist	-8219
▁הגיוס	-8220
92	-8221
▁שהגיע	-8222
שאיר	-8223
iO	-8224
▁אורח	-8225
▁מורכב	-8226
▁צפויה	-8227
▁Face	-8228
▁עלות	-8229
▁Cor	-8230
▁הקב	-8231
▁חומרים	-8232
כנון	-8233
▁קוק	-8234
▁בחברת	-8235
▁גדל	-8236
סתה	-8237
▁להשקיע	-8238
יינה	-8239
▁Use	-8240
▁Are	-8241
▁attempt	-8242
▁item	-8243
▁היישוב	-8244
▁goal	-8245
▁שרון	-8246
elebr	-8247
טרנטי	-8248
געו	-8249
▁[`	-8250
▁בגר	-8251
וטו	-8252
צלמה	-8253
▁core	-8254
▁למכור	-8255
/3	-8256
▁תחילה	-8257
▁progress	-8258
▁באל	-8259
▁נשי	-8260
cy	-8261
▁התפתחות	-8262
ילא	-8263
▁squ	-8264
▁אריה	-8265
more	-8266
▁שמאפשר	-8267
▁בדיקה	-8268
▁עבורכם	-8269
▁memory	-8270
שני	-8271
iki	-8272
▁לאו	-8273
▁ok	-8274
▁gives	-8275
▁נפטר	-8276
ושות	-8277
▁altern	-8278
נסיה	-8279
ians	-8280
▁במאה	-8281
▁הנוכח	-8282
▁תשל	-8283
▁stuff	-8284
▁living	-8285
ובייל	-8286
יקו	-8287
יינת	-8288
נוב	-8289
▁תלמיד	-8290
▁entry	-8291
▁חושבים	-8292
לטות	-8293
▁הורים	-8294
▁300	-8295
▁ייעוץ	-8296
used	-8297
שינגטון	-8298
▁בטור	-8299
81	-8300
בתו	-8301
▁(18	-8302
ensions	-8303
▁requirements	-8304
▁תכנון	-8305
אמ	-8306
▁מנד	-8307
▁קידום	-8308
ooth	-8309
▁החברים	-8310
▁age	-8311
▁ונש	-8312
▁דובר	-8313
ctor	-8314
▁contains	-8315
▁הכח	-8316
▁פריד	-8317
▁mobile	-8318
race	-8319
▁שניים	-8320
8]	-8321
▁ממשיך	-8322
מטיקה	-8323
▁map	-8324
▁הסטארטאפ	-8325
▁מפי	-8326
▁אזרחים	-8327
▁נוח	-8328
▁המבנה	-8329
ייך	-8330
▁השטח	-8331
גרש	-8332
ינג	-8333
▁זוהי	-8334
▁אלוהים	-8335
▁aud	-8336
▁ste	-8337
▁natural	-8338
▁quickly	-8339
▁official	-8340
משלת	-8341
כנסות	-8342
יציה	-8343
▁ההי	-8344
env	-8345
▁שמחה	-8346
▁machine	-8347
sult	-8348
▁מנוע	-8349
▁By	-8350
▁generated	-8351
LI	-8352
▁Center	-8353
:\\	-8354
▁draw	-8355
מערכת	-8356
▁מצט	-8357
▁education	-8358
▁ממח	-8359
▁יגיע	-8360
▁כלשהו	-8361
▁תערו	-8362
▁אנרגיה	-8363
▁הגבול	-8364
▁תקי	-8365
▁song	-8366
▁איו	-8367
▁התובע	-8368
▁Let	-8369
▁אמצעי	-8370
▁חיות	-8371
▁מיכל	-8372
ils	-8373
rael	-8374
▁מערך	-8375
מלה	-8376
▁חתי	-8377
▁המוזיקה	-8378
וצות	-8379
▁המונ	-8380
▁correctly	-8381
▁Mon	-8382
▁שיער	-8383
נרל	-8384
▁מסחר	-8385
▁starting	-8386
▁slow	-8387
▁skills	-8388
oper	-8389
▁אילו	-8390
▁חשובה	-8391
▁מחלקת	-8392
▁לרשות	-8393
▁הכבוד	-8394
OC	-8395
▁chance	-8396
▁העיקרי	-8397
▁שהק	-8398
▁יוצרים	-8399
▁Don	-8400
▁חבל	-8401
▁העור	-8402
▁האמריקני	-8403
▁Pol	-8404
▁לתל	-8405
ufact	-8406
▁prim	-8407
מינו	-8408
▁בהרבה	-8409
▁הערות	-8410
▁הספורט	-8411
ייטק	-8412
umber	-8413
▁המר	-8414
▁arg	-8415
▁לנה	-8416
▁instruct	-8417
XX	-8418
print	-8419
▁לבר	-8420
שיתוף	-8421
ume	-8422
חדשות	-8423
▁sort	-8424
▁myself	-8425
▁המערבי	-8426
sm	-8427
▁תפק	-8428
▁מדהים	-8429
uster	-8430
82	-8431
verage	-8432
▁חיס	-8433
uplic	-8434
▁סקר	-8435
▁הקרקע	-8436
ios	-8437
לכת	-8438
▁1:	-8439
▁High	-8440
▁פועל	-8441
/5	-8442
▁claim	-8443
hib	-8444
▁פוס	-8445
▁לעצור	-8446
▁ציין	-8447
▁בסגנון	-8448
דויות	-8449
▁מכשירים	-8450
▁בעצמו	-8451
▁פרטיים	-8452
▁העצמאות	-8453
bot	-8454
▁pers	-8455
▁שלושת	-8456
▁השמש	-8457
▁להחזיר	-8458
▁מרת	-8459
▁בחינם	-8460
ster	-8461
▁נעים	-8462
בודות	-8463
▁כותב	-8464
▁להעלות	-8465
▁חנות	-8466
▁להצטרף	-8467
rep	-8468
▁(4	-8469
▁לחיים	-8470
▁רחוק	-8471
▁רעיון	-8472
ריאות	-8473
▁כניסה	-8474
▁חזקה	-8475
field	-8476
ודיות	-8477
▁רצו	-8478
▁העולמי	-8479
▁sat	-8480
עתה	-8481
וניה	-8482
▁החס	-8483
▁לעד	-8484
ונם	-8485
▁IP	-8486
▁תיע	-8487
▁##	-8488
▁six	-8489
',\	-8490
▁טכנולוגיות	-8491
oving	-8492
▁לצי	-8493
ופיע	-8494
zure	-8495
אפ	-8496
לאים	-8497
▁נתק	-8498
aml	-8499
פרת	-8500
▁מלה	-8501
▁הקיץ	-8502
▁להתג	-8503
▁אמריקאי	-8504
▁להיע	-8505
▁נמוכה	-8506
▁שפות	-8507
▁execut	-8508
▁להחליף	-8509
לום	-8510
▁איטליה	-8511
ליפ	-8512
oad	-8513
▁הצרפת	-8514
▁deliver	-8515
▁throughout	-8516
וטף	-8517
▁park	-8518
inc	-8519
▁הנכון	-8520
▁פיגוע	-8521
▁continu	-8522
▁מיום	-8523
▁Build	-8524
▁השחקן	-8525
▁להשתתף	-8526
np	-8527
כותי	-8528
▁עומדת	-8529
▁ונת	-8530
▁פרנק	-8531
▁משותף	-8532
מאית	-8533
▁setup	-8534
ומק	-8535
Comp	-8536
resp	-8537
▁כלכלי	-8538
▁רגל	-8539
▁הקשה	-8540
▁ערבי	-8541
%.	-8542
▁יבוא	-8543
ky	-8544
נטו	-8545
▁התשובה	-8546
▁שמגיע	-8547
מפיא	-8548
▁המקורי	-8549
▁תמי	-8550
develop	-8551
▁בחירות	-8552
▁סיכוי	-8553
פתחו	-8554
▁אסי	-8555
▁שותף	-8556
▁English	-8557
ראינה	-8558
adem	-8559
▁held	-8560
▁collection	-8561
▁קוראים	-8562
▁hon	-8563
72	-8564
כרות	-8565
▁כספי	-8566
▁מוזמנים	-8567
ama	-8568
▁יוח	-8569
▁tour	-8570
חרה	-8571
בסס	-8572
▁כבד	-8573
▁נוכל	-8574
▁ברצי	-8575
▁הקטן	-8576
▁bal	-8577
▁מהו	-8578
▁9.	-8579
iece	-8580
יינות	-8581
שקלון	-8582
▁התמונות	-8583
▁בראשית	-8584
▁activities	-8585
esome	-8586
▁repository	-8587
▁קונס	-8588
▁המוכ	-8589
▁מעין	-8590
▁goes	-8591
▁remember	-8592
nIs	-8593
▁שאף	-8594
ends	-8595
urrently	-8596
▁העברת	-8597
▁article	-8598
5)	-8599
▁בריא	-8600
▁עוק	-8601
דושה	-8602
גיד	-8603
▁הנבחר	-8604
uby	-8605
IR	-8606
פנה	-8607
▁yes	-8608
ניהן	-8609
▁haven	-8610
▁higher	-8611
נולד	-8612
▁בקיץ	-8613
▁חוג	-8614
▁הפרק	-8615
TTP	-8616
חשבה	-8617
▁אשדוד	-8618
▁בעיני	-8619
▁האק	-8620
▁תאריך	-8621
רכיב	-8622
▁במגוון	-8623
▁מיכאל	-8624
יקום	-8625
▁בגודל	-8626
▁האירופי	-8627
חילה	-8628
▁סטי	-8629
▁בסדרת	-8630
ilit	-8631
▁חום	-8632
פיו	-8633
▁חכמים	-8634
▁המלון	-8635
▁רשמית	-8636
”.	-8637
aily	-8638
▁settings	-8639
▁sun	-8640
▁מהג	-8641
▁זיכרון	-8642
ופעות	-8643
▁UI	-8644
()`	-8645
ירוש	-8646
▁Apr	-8647
\">\	-8648
▁אינס	-8649
▁פועלים	-8650
▁stream	-8651
▁מכירות	-8652
▁והב	-8653
▁פברואר	-8654
▁Tw	-8655
oman	-8656
▁וקי	-8657
▁שחי	-8658
ikip	-8659
hand	-8660
דיקות	-8661
▁decided	-8662
פרץ	-8663
ילית	-8664
▁(20	-8665
פרק	-8666
רוד	-8667
ביבות	-8668
6/	-8669
-40	-8670
יקף	-8671
▁veh	-8672
▁לגי	-8673
▁התוכן	-8674
ifest	-8675
▁המילה	-8676
▁סיד	-8677
▁estab	-8678
▁stre	-8679
8/	-8680
iced	-8681
▁סיוע	-8682
▁מנות	-8683
▁הכלכלי	-8684
▁מחירים	-8685
▁קס	-8686
▁exactly	-8687
▁עזרה	-8688
בך	-8689
משחק	-8690
▁למג	-8691
▁וללא	-8692
▁סמסונג	-8693
▁מחל	-8694
itect	-8695
▁בלח	-8696
▁ולג	-8697
▁ניר	-8698
▁אפק	-8699
▁ריק	-8700
▁משמע	-8701
▁גרסה	-8702
▁dam	-8703
SD	-8704
ikipedia	-8705
▁כולה	-8706
▁Data	-8707
▁לקהל	-8708
▁זכו	-8709
▁12:	-8710
nAdd	-8711
וצרת	-8712
▁השרון	-8713
יוו	-8714
▁חם	-8715
▁database	-8716
▁speed	-8717
▁ברשות	-8718
▁הממל	-8719
▁ניסה	-8720
▁מוות	-8721
▁עומדים	-8722
-80	-8723
▁טה	-8724
like	-8725
gl	-8726
בדים	-8727
▁קוס	-8728
▁בקשר	-8729
פיינים	-8730
▁words	-8731
oph	-8732
▁told	-8733
▁הבאות	-8734
TC	-8735
▁bott	-8736
▁Run	-8737
▁drive	-8738
▁ליברמן	-8739
ros	-8740
בריה	-8741
▁במט	-8742
▁האחרים	-8743
▁dest	-8744
▁safe	-8745
▁Description	-8746
▁העירו	-8747
▁ייצור	-8748
▁דרישות	-8749
arr	-8750
dom	-8751
▁כושר	-8752
▁בשימוש	-8753
▁ביטול	-8754
▁ציבורית	-8755
▁ההיסטוריה	-8756
▁Rec	-8757
▁פינ	-8758
▁מכתב	-8759
▁contract	-8760
▁providing	-8761
▁גמר	-8762
▁בבקשה	-8763
▁לפיד	-8764
▁ירידה	-8765
▁קישור	-8766
▁Read	-8767
▁lower	-8768
oice	-8769
▁דרכו	-8770
▁שנית	-8771
▁John	-8772
▁עשויה	-8773
▁טקס	-8774
▁effic	-8775
▁הבד	-8776
▁רופא	-8777
▁שבהן	-8778
▁browser	-8779
▁לקח	-8780
וגת	-8781
▁איתה	-8782
▁ספרד	-8783
cel	-8784
▁מיר	-8785
▁complex	-8786
▁register	-8787
▁נהג	-8788
oken	-8789
▁השואה	-8790
▁completely	-8791
▁הכה	-8792
▁משלוח	-8793
▁מבר	-8794
▁31	-8795
פשט	-8796
ports	-8797
rypt	-8798
▁שאמר	-8799
▁החברתיות	-8800
▁interested	-8801
▁empty	-8802
▁מכשירי	-8803
▁ואיך	-8804
▁האדום	-8805
▁קילומ	-8806
▁saw	-8807
עמ	-8808
▁Make	-8809
▁האייפון	-8810
כלת	-8811
▁בצבע	-8812
-24	-8813
▁Art	-8814
▁pattern	-8815
▁באח	-8816
פואה	-8817
▁patch	-8818
▁כספים	-8819
▁הבלתי	-8820
ופיה	-8821
▁מורה	-8822
▁מילה	-8823
istration	-8824
▁אליפות	-8825
text	-8826
רווי	-8827
Doc	-8828
▁רצח	-8829
▁film	-8830
▁###	-8831
▁הפרטים	-8832
יז	-8833
גלים	-8834
▁אופטי	-8835
▁בסמוך	-8836
how	-8837
▁מתייחס	-8838
▁thinking	-8839
active	-8840
▁לפיתוח	-8841
▁וטי	-8842
▁התוצאה	-8843
▁מתכ	-8844
▁התגובה	-8845
אלו	-8846
▁עדכונים	-8847
▁שהרי	-8848
סיקה	-8849
▁late	-8850
▁כתוב	-8851
בעון	-8852
atives	-8853
▁הלהקה	-8854
▁הפופול	-8855
▁properly	-8856
▁packages	-8857
▁עלתה	-8858
▁לשבת	-8859
string	-8860
hol	-8861
▁סבב	-8862
▁HTML	-8863
▁עצמית	-8864
▁Develop	-8865
nb	-8866
▁בתחומי	-8867
▁ויא	-8868
▁ובנו	-8869
[4	-8870
▁appl	-8871
▁fields	-8872
SP	-8873
▁פאר	-8874
igger	-8875
סקס	-8876
bol	-8877
▁מודל	-8878
▁כלכלית	-8879
▁גבוהים	-8880
Version	-8881
▁התלמידים	-8882
כלול	-8883
▁המשפטי	-8884
.[4]	-8885
▁לבחון	-8886
▁כלשה	-8887
ounds	-8888
▁descri	-8889
dc	-8890
ננות	-8891
▁ri	-8892
gen	-8893
▁על־	-8894
סאות	-8895
▁Hello	-8896
▁Gener	-8897
▁reported	-8898
▁financial	-8899
▁שנערך	-8900
▁shared	-8901
▁הקר	-8902
▁יקר	-8903
▁משני	-8904
year	-8905
▁stri	-8906
▁בראשות	-8907
ui	-8908
▁המאוח	-8909
▁כיש	-8910
ממה	-8911
nWith	-8912
ריטניה	-8913
▁לבטל	-8914
stack	-8915
▁root	-8916
▁לסרט	-8917
Man	-8918
▁appropriate	-8919
unately	-8920
alt	-8921
TRI	-8922
ADME	-8923
פילה	-8924
▁wish	-8925
▁המשת	-8926
▁interesting	-8927
bc	-8928
▁זוכ	-8929
▁מטה	-8930
▁לשון	-8931
▁changing	-8932
sch	-8933
▁דיון	-8934
▁בניין	-8935
▁Sim	-8936
בירים	-8937
▁דמויות	-8938
▁rate	-8939
▁הקרן	-8940
▁הרפואי	-8941
▁פירות	-8942
כלות	-8943
▁לוו	-8944
▁אימון	-8945
מנטים	-8946
▁query	-8947
▁מהלך	-8948
Phone	-8949
ועה	-8950
נקציות	-8951
טול	-8952
בנית	-8953
▁הפתרון	-8954
illed	-8955
▁Type	-8956
,"	-8957
nK	-8958
▁amazing	-8959
ליא	-8960
כתוב	-8961
▁הבנתי	-8962
▁זע	-8963
▁attach	-8964
icit	-8965
▁לנצח	-8966
▁אחראי	-8967
▁fresh	-8968
▁תינו	-8969
▁המשנה	-8970
▁ציו	-8971
לינג	-8972
▁משבר	-8973
וריות	-8974
הס	-8975
▁הליכוד	-8976
נסון	-8977
▁הממשל	-8978
▁בנת	-8979
▁מופיע	-8980
▁בסוריה	-8981
▁יצירות	-8982
▁אוח	-8983
▁fails	-8984
▁במרחק	-8985
▁considered	-8986
פלה	-8987
▁ספרות	-8988
▁הולכים	-8989
▁שיותר	-8990
▁האפליקציות	-8991
▁Then	-8992
כית	-8993
▁סיל	-8994
▁עדיף	-8995
▁Java	-8996
מעשה	-8997
rs	-8998
▁comfort	-8999
▁להגיש	-9000
▁שלאחר	-9001
▁32	-9002
בעו	-9003
▁הגא	-9004
▁bed	-9005
2.0	-9006
וגו	-9007
▁Ang	-9008
▁Oct	-9009
link	-9010
וכית	-9011
▁השתתפו	-9012
▁להימנע	-9013
ector	-9014
טוב	-9015
▁בפרק	-9016
atory	-9017
▁celebr	-9018
}}	-9019
▁המבק	-9020
▁לבו	-9021
▁פרץ	-9022
מעת	-9023
▁רבינו	-9024
▁הטלפון	-9025
CH	-9026
,[	-9027
▁Af	-9028
▁enter	-9029
וארד	-9030
▁בהג	-9031
▁rad	-9032
▁While	-9033
▁הדו	-9034
▁גביע	-9035
▁immedi	-9036
▁מעוניינים	-9037
▁background	-9038
▁מנצ	-9039
▁מוסי	-9040
▁שולחן	-9041
▁ארד	-9042
▁summer	-9043
dl	-9044
oe	-9045
▁חן	-9046
מינג	-9047
▁אמרתי	-9048
▁בדיקת	-9049
▁..	-9050
נוכה	-9051
▁השקעות	-9052
▁roll	-9053
▁מנחם	-9054
▁כרו	-9055
▁באשר	-9056
▁Mc	-9057
הק	-9058
reed	-9059
שמים	-9060
▁הכדור	-9061
▁null	-9062
▁מבינים	-9063
גוריות	-9064
aves	-9065
▁normal	-9066
▁באיכות	-9067
▁סבא	-9068
▁מנהי	-9069
▁במדינות	-9070
▁כוללים	-9071
▁ign	-9072
▁נמש	-9073
▁drop	-9074
▁הלבן	-9075
▁הקריירה	-9076
▁הקולנוע	-9077
▁להכין	-9078
DA	-9079
gy	-9080
();\	-9081
▁מימון	-9082
▁solutions	-9083
סין	-9084
▁רה	-9085
semantic	-9086
כללה	-9087
▁חופש	-9088
▁הבין	-9089
eta	-9090
טיבה	-9091
▁extension	-9092
ביק	-9093
▁transl	-9094
▁UK	-9095
▁הדיון	-9096
▁לזכור	-9097
ושב	-9098
▁אינן	-9099
▁לשאול	-9100
▁כחול	-9101
▁word	-9102
-60	-9103
▁parts	-9104
BUT	-9105
▁תחנת	-9106
**:\	-9107
▁משטרת	-9108
▁אריאל	-9109
ליהם	-9110
ales	-9111
▁בסיום	-9112
▁asked	-9113
▁ground	-9114
▁מבצעים	-9115
iol	-9116
▁וכמו	-9117
nThank	-9118
▁crash	-9119
▁להעניק	-9120
וזים	-9121
▁המלאה	-9122
ham	-9123
▁פופול	-9124
▁להיר	-9125
▁messages	-9126
▁כשר	-9127
▁ערו	-9128
▁לפרו	-9129
▁definitely	-9130
▁},\	-9131
▁הפרסום	-9132
▁מפור	-9133
▁להכניס	-9134
▁Ac	-9135
▁רגיל	-9136
▁מפק	-9137
▁באו	-9138
מג	-9139
▁משו	-9140
za	-9141
▁רצה	-9142
▁משקיעים	-9143
▁מזג	-9144
▁~	-9145
▁%	-9146
וזן	-9147
פסו	-9148
uk	-9149
▁גו	-9150
▁כיו	-9151
anges	-9152
▁מאמן	-9153
latest	-9154
▁עיס	-9155
WS	-9156
פעול	-9157
ournal	-9158
▁מטרות	-9159
▁45	-9160
▁More	-9161
▁נבד	-9162
▁גיקטיים	-9163
atur	-9164
▁ולפי	-9165
▁המלצות	-9166
חלוקת	-9167
▁fully	-9168
▁מכירה	-9169
וגיה	-9170
▁לבנון	-9171
▁המלח	-9172
▁filter	-9173
ורן	-9174
▁האצ	-9175
▁האפש	-9176
▁ותק	-9177
▁array	-9178
ubernet	-9179
08	-9180
▁קצרה	-9181
ועים	-9182
▁בקרי	-9183
▁applications	-9184
▁לאת	-9185
ubernetes	-9186
:3	-9187
nAfter	-9188
▁oil	-9189
▁הונג	-9190
▁party	-9191
ters	-9192
▁מהירות	-9193
▁green	-9194
▁bot	-9195
▁Day	-9196
▁limit	-9197
▁למספר	-9198
▁יושב	-9199
▁שמאל	-9200
alls	-9201
▁אתרי	-9202
▁שחרור	-9203
▁2004	-9204
▁נתוני	-9205
▁מוזיק	-9206
▁באנגלית	-9207
▁אלימות	-9208
▁מביא	-9209
ואליציה	-9210
סטה	-9211
▁loss	-9212
▁הענק	-9213
▁רז	-9214
▁מקל	-9215
OU	-9216
עץ	-9217
▁incor	-9218
פלת	-9219
▁מידה	-9220
▁difference	-9221
▁האמיתי	-9222
▁בפור	-9223
▁העתיקה	-9224
ernational	-9225
An	-9226
▁Off	-9227
▁בחיי	-9228
istic	-9229
▁מאיתנו	-9230
ellow	-9231
▁treatment	-9232
▁הספרים	-9233
לאת	-9234
▁העיצוב	-9235
rup	-9236
▁ולד	-9237
▁החלל	-9238
▁שישה	-9239
▁programs	-9240
▁הצפו	-9241
▁sy	-9242
Int	-9243
iction	-9244
TRIBUT	-9245
▁adds	-9246
▁בפרט	-9247
...]	-9248
▁מציג	-9249
▁להלן	-9250
▁מקסי	-9251
ecause	-9252
List	-9253
▁לדר	-9254
▁סיפורים	-9255
▁הרשמי	-9256
▁achieve	-9257
▁meeting	-9258
mail	-9259
טיביות	-9260
nMy	-9261
מצם	-9262
ליחים	-9263
▁שקיבל	-9264
▁חשובים	-9265
▁להרגיש	-9266
▁parameter	-9267
▁deg	-9268
▁town	-9269
.)	-9270
▁published	-9271
win	-9272
pe	-9273
\":\"	-9274
רכיבים	-9275
▁ביע	-9276
▁Facebook	-9277
▁אסטרטג	-9278
▁מכר	-9279
What	-9280
▁growth	-9281
▁גולן	-9282
▁computer	-9283
רנית	-9284
וכיח	-9285
▁capt	-9286
▁מומחה	-9287
▁variable	-9288
nes	-9289
▁צדק	-9290
ותרות	-9291
ja	-9292
OP	-9293
▁Soc	-9294
▁ירוק	-9295
bor	-9296
▁שיפור	-9297
▁involved	-9298
▁מגע	-9299
▁אירועי	-9300
script	-9301
▁תשומת	-9302
▁Mus	-9303
▁graph	-9304
▁הגז	-9305
▁טכני	-9306
▁עמדה	-9307
▁planning	-9308
▁policy	-9309
▁sometimes	-9310
aws	-9311
וסקת	-9312
▁יין	-9313
▁Python	-9314
▁choice	-9315
▁From	-9316
▁Pres	-9317
▁שירה	-9318
▁בצרפת	-9319
"),	-9320
▁sales	-9321
42	-9322
▁שהגיעו	-9323
▁בצבא	-9324
▁התחבורה	-9325
▁שזו	-9326
▁אפליקציית	-9327
lang	-9328
▁מכאן	-9329
▁active	-9330
▁בנייה	-9331
▁להפסיק	-9332
▁tab	-9333
▁אלוף	-9334
▁מבקש	-9335
▁pages	-9336
/2	-9337
▁בחוק	-9338
▁הקבוצות	-9339
creenshot	-9340
▁קשות	-9341
Exception	-9342
▁ill	-9343
▁פרטיות	-9344
▁ללח	-9345
▁חברתי	-9346
▁מנסים	-9347
▁האיחוד	-9348
arter	-9349
▁הפסי	-9350
נציה	-9351
▁ושה	-9352
▁מזמן	-9353
אונד	-9354
▁קולות	-9355
▁subject	-9356
01	-9357
▁בלה	-9358
▁חלקם	-9359
▁מאמר	-9360
▁ישירה	-9361
טיס	-9362
▁המעבר	-9363
▁נהרגו	-9364
יקס	-9365
נקה	-9366
▁סוריה	-9367
ועלת	-9368
▁aware	-9369
קבלו	-9370
▁כנס	-9371
▁זמין	-9372
▁challeng	-9373
▁Direct	-9374
▁לנג	-9375
▁מייל	-9376
vey	-9377
צאים	-9378
▁בהשוואה	-9379
▁שתף	-9380
שתתפים	-9381
▁החוף	-9382
▁עמוק	-9383
71	-9384
רר	-9385
▁hug	-9386
▁מתחילים	-9387
פדיה	-9388
▁סת	-9389
▁להפעיל	-9390
▁respect	-9391
ondon	-9392
ניום	-9393
▁דרכ	-9394
▁מרדכי	-9395
▁examples	-9396
▁בראיון	-9397
-"	-9398
ודיה	-9399
▁ליצירת	-9400
▁תפקידו	-9401
▁interface	-9402
DF	-9403
▁אליהו	-9404
▁גנץ	-9405
▁Group	-9406
▁להוביל	-9407
const	-9408
▁בטח	-9409
▁בחירת	-9410
▁manufact	-9411
▁הוקם	-9412
▁המזון	-9413
▁החקירה	-9414
▁מהבית	-9415
olution	-9416
▁Play	-9417
▁encour	-9418
פורניה	-9419
▁actual	-9420
▁thread	-9421
▁תיאטרון	-9422
▁הדעת	-9423
וללה	-9424
▁שכי	-9425
▁ואחר	-9426
▁לדרך	-9427
").	-9428
▁pip	-9429
▁מכון	-9430
קין	-9431
onda	-9432
וזיציה	-9433
▁מהצ	-9434
▁מוכנים	-9435
▁deep	-9436
sy	-9437
▁variety	-9438
ilder	-9439
▁התר	-9440
▁ואתם	-9441
rele	-9442
▁המדו	-9443
▁המיי	-9444
▁ובני	-9445
▁נתון	-9446
▁structure	-9447
CC	-9448
▁להמשך	-9449
▁wasn	-9450
מוקרטיה	-9451
לייה	-9452
▁ישת	-9453
▁Post	-9454
▁לכבוד	-9455
▁mac	-9456
▁speak	-9457
▁מיקום	-9458
מוז	-9459
▁menu	-9460
/1	-9461
6)	-9462
/19	-9463
▁La	-9464
▁פוט	-9465
▁מערב	-9466
Add	-9467
9]	-9468
▁יחיד	-9469
ולא	-9470
▁הנחה	-9471
LA	-9472
יצור	-9473
▁לחברת	-9474
▁המו	-9475
▁בקשה	-9476
ננו	-9477
בונות	-9478
פוח	-9479
▁Have	-9480
▁מציאות	-9481
▁אלבום	-9482
פורד	-9483
▁טעות	-9484
▁בגרמניה	-9485
enge	-9486
part	-9487
▁נודע	-9488
▁ded	-9489
▁לרגע	-9490
▁שנג	-9491
▁ממשל	-9492
כמות	-9493
▁sle	-9494
▁קצב	-9495
▁label	-9496
▁והז	-9497
ressed	-9498
▁kids	-9499
▁התביעה	-9500
ליטים	-9501
▁שניהם	-9502
▁טווח	-9503
▁appears	-9504
▁plans	-9505
▁ולו	-9506
▁בלונדון	-9507
iw	-9508
▁implemented	-9509
Ser	-9510
▁פתאום	-9511
אלית	-9512
▁SD	-9513
▁מתב	-9514
▁אנא	-9515
▁לדא	-9516
---\	-9517
▁מצוין	-9518
▁medical	-9519
igr	-9520
▁מועדון	-9521
._	-9522
▁המסחר	-9523
▁Fin	-9524
Script	-9525
▁שאינה	-9526
▁הודו	-9527
▁student	-9528
▁השקעה	-9529
▁בחש	-9530
▁Pe	-9531
▁לביצוע	-9532
▁playing	-9533
זבאללה	-9534
▁places	-9535
▁פרופסור	-9536
nf	-9537
▁נחל	-9538
LCJ	-9539
▁לבקר	-9540
▁skin	-9541
▁”	-9542
ברא	-9543
▁anim	-9544
▁איכותי	-9545
▁שיניים	-9546
▁בהש	-9547
פרה	-9548
▁Acc	-9549
▁נקי	-9550
▁מזכיר	-9551
מרק	-9552
▁האמנות	-9553
String	-9554
▁אלכסנדר	-9555
▁cross	-9556
value	-9557
▁Trans	-9558
▁להצלחה	-9559
▁תלמידים	-9560
iqu	-9561
גנו	-9562
▁יובל	-9563
▁container	-9564
arden	-9565
▁terms	-9566
▁כ־	-9567
▁כיון	-9568
▁איזו	-9569
▁האיס	-9570
▁להסביר	-9571
ווט	-9572
▁ניכר	-9573
:5	-9574
▁ליע	-9575
ding	-9576
▁בפעילות	-9577
מצים	-9578
פוצה	-9579
▁devices	-9580
▁בחוץ	-9581
07	-9582
▁זאב	-9583
ראק	-9584
▁פסיכולוג	-9585
▁איז	-9586
nAn	-9587
aign	-9588
▁neg	-9589
))	-9590
▁אמה	-9591
פעמים	-9592
▁generate	-9593
▁ריצ	-9594
▁הנוכחית	-9595
נסטגרם	-9596
▁element	-9597
cli	-9598
▁הכלים	-9599
▁עצם	-9600
▁הפק	-9601
illa	-9602
▁היב	-9603
▁קבל	-9604
GF	-9605
asons	-9606
iling	-9607
▁כזאת	-9608
ung	-9609
▁הכדורגל	-9610
▁Ab	-9611
▁סוד	-9612
▁dependency	-9613
לוונטי	-9614
▁תחומי	-9615
▁excell	-9616
▁moving	-9617
▁טרו	-9618
▁הצעות	-9619
▁groups	-9620
▁משותפת	-9621
▁storage	-9622
▁הנש	-9623
▁שירת	-9624
▁הישראלים	-9625
▁international	-9626
▁כביש	-9627
▁קהילת	-9628
▁runs	-9629
▁היעד	-9630
▁affect	-9631
▁הלך	-9632
▁הונ	-9633
▁compat	-9634
ica	-9635
▁קרקע	-9636
▁הגרמני	-9637
▁בגוף	-9638
ague	-9639
which	-9640
▁הוראות	-9641
▁תקציב	-9642
▁lives	-9643
TRIBUTING	-9644
▁discover	-9645
▁לוודא	-9646
▁</	-9647
▁150	-9648
No	-9649
גשתי	-9650
▁מחקרים	-9651
▁solve	-9652
▁מעניי	-9653
ענו	-9654
▁09	-9655
▁והנ	-9656
חרור	-9657
displaystyle	-9658
▁מית	-9659
ידר	-9660
cul	-9661
▁console	-9662
▁הפרטי	-9663
▁completed	-9664
▁הבן	-9665
▁אטרק	-9666
▁classes	-9667
LS	-9668
▁April	-9669
▁ממני	-9670
כסוך	-9671
▁קובצי	-9672
▁הוז	-9673
▁במחוז	-9674
▁wide	-9675
▁Linux	-9676
▁books	-9677
▁session	-9678
בויות	-9679
▁lost	-9680
אתם	-9681
▁upload	-9682
טין	-9683
avid	-9684
▁כיהן	-9685
▁קב	-9686
▁אחריו	-9687
טמן	-9688
▁השירים	-9689
▁כבש	-9690
-70	-9691
uary	-9692
▁leading	-9693
TS	-9694
▁האוכלוסייה	-9695
using	-9696
▁Austral	-9697
▁בקבוצת	-9698
▁מאה	-9699
▁morning	-9700
כנן	-9701
▁sty	-9702
▁בחזרה	-9703
2022	-9704
/12	-9705
▁יסוד	-9706
▁properties	-9707
▁כשל	-9708
▁כמי	-9709
▁זהות	-9710
▁moved	-9711
▁defined	-9712
▁calls	-9713
▁debug	-9714
agn	-9715
)"	-9716
▁והר	-9717
כנסו	-9718
▁אמיר	-9719
בינו	-9720
▁קשור	-9721
מינות	-9722
urning	-9723
▁אוהבת	-9724
▁העתיד	-9725
▁במדינת	-9726
trans	-9727
▁אדמה	-9728
▁Out	-9729
▁השמאל	-9730
▁להזמין	-9731
▁ערבים	-9732
▁broken	-9733
▁leaders	-9734
▁TH	-9735
▁Gl	-9736
-23	-9737
כמי	-9738
רייה	-9739
▁Could	-9740
▁python	-9741
▁שגרי	-9742
▁מושלם	-9743
udc	-9744
▁עוסק	-9745
פשוט	-9746
-22	-9747
▁pric	-9748
▁mount	-9749
valid	-9750
▁לגייס	-9751
חחחח	-9752
▁marketing	-9753
▁196	-9754
untu	-9755
▁בצע	-9756
▁indic	-9757
Code	-9758
airs	-9759
:**\	-9760
▁למדינה	-9761
יקיפדיה	-9762
מכות	-9763
tests	-9764
▁מחס	-9765
לטו	-9766
▁הבינלאומית	-9767
▁condition	-9768
טווח	-9769
▁המאמן	-9770
מוקרטית	-9771
▁contribution	-9772
▁shown	-9773
▁gen	-9774
EO	-9775
▁בוא	-9776
▁החליטו	-9777
bi	-9778
▁inj	-9779
▁לחם	-9780
▁תוספת	-9781
▁יוצאת	-9782
▁הפייסבוק	-9783
▁cy	-9784
▁אוסט	-9785
For	-9786
arth	-9787
▁אזרחי	-9788
▁במקור	-9789
▁הרוסית	-9790
IF	-9791
[3].	-9792
▁האזרחים	-9793
▁שווי	-9794
▁career	-9795
▁קומו	-9796
ווירה	-9797
▁המוג	-9798
▁התמ	-9799
▁במוז	-9800
▁הפג	-9801
▁הבנייה	-9802
▁משוב	-9803
▁גרסת	-9804
▁Wikipedia	-9805
▁modern	-9806
iring	-9807
▁400	-9808
▁cand	-9809
▁התרח	-9810
פירה	-9811
tat	-9812
▁enh	-9813
▁מחשבים	-9814
▁הקודמת	-9815
▁המקרים	-9816
אייטיב	-9817
▁מתפרסם	-9818
>,	-9819
▁ארגוני	-9820
▁שגר	-9821
בורת	-9822
▁בהיסטוריה	-9823
▁ברשתות	-9824
רעין	-9825
▁`.	-9826
כולל	-9827
▁מוביל	-9828
▁שנקרא	-9829
▁ביח	-9830
▁Fire	-9831
▁catch	-9832
▁התוכנה	-9833
▁הרחב	-9834
%,	-9835
can	-9836
gn	-9837
▁ER	-9838
▁מכת	-9839
▁March	-9840
פלגות	-9841
▁דבריו	-9842
▁Review	-9843
▁עלו	-9844
▁הקונס	-9845
td	-9846
sume	-9847
▁Set	-9848
▁שקד	-9849
▁הקרובה	-9850
▁insurance	-9851
▁auto	-9852
fortunately	-9853
רגש	-9854
▁השינוי	-9855
ober	-9856
▁מיליוני	-9857
טט	-9858
▁בכוח	-9859
▁בהצ	-9860
פטר	-9861
▁הדם	-9862
▁מספקת	-9863
ibly	-9864
▁ריי	-9865
vision	-9866
▁digital	-9867
plit	-9868
▁Stud	-9869
▁upon	-9870
ZX	-9871
▁scre	-9872
▁להקמת	-9873
▁אסת	-9874
▁levels	-9875
▁effective	-9876
▁שקט	-9877
▁הוות	-9878
▁מאור	-9879
▁favorite	-9880
▁מזו	-9881
▁יצאה	-9882
▁players	-9883
▁הציבורית	-9884
tem	-9885
וכבים	-9886
izer	-9887
▁רוק	-9888
▁בשפה	-9889
▁נפתח	-9890
▁להבטיח	-9891
ומרון	-9892
oding	-9893
▁shot	-9894
ifying	-9895
▁ממוצע	-9896
▁נוה	-9897
▁ביקור	-9898
▁ההסת	-9899
▁חייבת	-9900
▁mentioned	-9901
▁מבני	-9902
▁ממי	-9903
▁הנבחרת	-9904
טס	-9905
▁נותר	-9906
▁עברי	-9907
▁concept	-9908
▁Found	-9909
▁והתק	-9910
▁מאסר	-9911
▁מצוות	-9912
▁[...]	-9913
▁הישיבה	-9914
lication	-9915
MP	-9916
ategory	-9917
▁חיה	-9918
rive	-9919
▁לאט	-9920
▁תחושת	-9921
▁Service	-9922
▁ברכה	-9923
▁בצורת	-9924
▁דעות	-9925
▁round	-9926
▁במדליית	-9927
aming	-9928
▁נב	-9929
▁דופן	-9930
▁הנדר	-9931
▁שהכ	-9932
▁לתקן	-9933
▁הבריטית	-9934
▁distribut	-9935
fully	-9936
aker	-9937
▁rules	-9938
▁decision	-9939
חזק	-9940
▁ואחרי	-9941
▁משפטי	-9942
labor	-9943
▁סבל	-9944
▁הידע	-9945
▁תוס	-9946
▁named	-9947
▁העסקים	-9948
▁על־ידי	-9949
▁הזכ	-9950
\".	-9951
▁דרג	-9952
ביס	-9953
ugins	-9954
▁Associ	-9955
▁והיו	-9956
▁appeared	-9957
▁II	-9958
Fr	-9959
▁ערכים	-9960
▁הגבוהה	-9961
▁Aug	-9962
פסה	-9963
▁מתאר	-9964
azon	-9965
fb	-9966
kins	-9967
סוקה	-9968
▁הבחירה	-9969
▁ep	-9970
▁basic	-9971
▁פרויקטים	-9972
uate	-9973
rb	-9974
▁כאחד	-9975
חינת	-9976
▁dependencies	-9977
mas	-9978
▁מגן	-9979
▁הבמה	-9980
▁עיקר	-9981
פנו	-9982
גינים	-9983
▁חקירה	-9984
▁County	-9985
▁קשים	-9986
andom	-9987
▁התושבים	-9988
Al	-9989
▁Great	-9990
פיץ	-9991
▁הכלכלה	-9992
▁אשת	-9993
gener	-9994
ונגרס	-9995
▁attention	-9996
▁מחול	-9997
▁returns	-9998
▁International	-9999
▁תום	-10000
▁קצין	-10001
▁ספור	-10002
▁עסקי	-10003
טיסטי	-10004
▁פארק	-10005
▁דומים	-10006
▁החיילים	-10007
▁כק	-10008
▁Log	-10009
והה	-10010
ופק	-10011
apter	-10012
▁accom	-10013
auth	-10014
▁שבס	-10015
▁לעניין	-10016
▁stack	-10017
▁listen	-10018
▁בחברות	-10019
▁אנטי	-10020
▁האיטלק	-10021
בחרו	-10022
▁sem	-10023
▁confirm	-10024
comes	-10025
▁HTTP	-10026
ייסת	-10027
טונו	-10028
▁כפתור	-10029
▁מחיי	-10030
▁sil	-10031
▁הנפש	-10032
▁בתאריך	-10033
אבים	-10034
▁פלו	-10035
▁דוגמה	-10036
▁עידן	-10037
▁עוברים	-10038
▁יוצר	-10039
▁במים	-10040
▁conflic	-10041
HP	-10042
▁הוט	-10043
▁השליטה	-10044
▁בהכרח	-10045
▁הקדוש	-10046
▁Inter	-10047
▁נפרד	-10048
▁בנושאים	-10049
▁לאזור	-10050
ipment	-10051
▁center	-10052
bre	-10053
פין	-10054
▁fair	-10055
▁מסוגל	-10056
▁קריאייטיב	-10057
▁הוי	-10058
דף	-10059
▁London	-10060
וניברסיטת	-10061
aul	-10062
▁Techn	-10063
▁טיפים	-10064
▁מדעי	-10065
▁בטקס	-10066
▁מוסדות	-10067
▁War	-10068
azure	-10069
▁טענה	-10070
▁העולמית	-10071
חתו	-10072
▁לעזוב	-10073
nEx	-10074
ישוב	-10075
7)	-10076
▁פלטפור	-10077
▁אוז	-10078
▁ולצ	-10079
▁שבח	-10080
▁קיום	-10081
prise	-10082
דס	-10083
ובליק	-10084
▁הכפר	-10085
▁components	-10086
▁conditions	-10087
▁לוקח	-10088
▁ההור	-10089
רוני	-10090
anger	-10091
▁שלפני	-10092
usiness	-10093
▁figure	-10094
▁סך	-10095
▁חירום	-10096
▁reports	-10097
izes	-10098
CONTRIBUTING	-10099
▁סיני	-10100
▁Other	-10101
▁הוציא	-10102
▁העסקה	-10103
▁בגל	-10104
▁החומר	-10105
ris	-10106
▁והשי	-10107
▁אדי	-10108
▁הורה	-10109
▁רדיו	-10110
▁בכנסת	-10111
קרן	-10112
ktop	-10113
▁:)\	-10114
▁Mich	-10115
▁Health	-10116
▁ייחודי	-10117
חושה	-10118
▁לעקוב	-10119
▁התנגדות	-10120
2020	-10121
▁וכדומה	-10122
▁התוב	-10123
▁behavi	-10124
▁אסף	-10125
▁הוביל	-10126
known	-10127
nAlso	-10128
▁הצבאית	-10129
▁helpful	-10130
איות	-10131
▁העברי	-10132
▁Bro	-10133
-90	-10134
▁למלא	-10135
▁ישיבה	-10136
▁IT	-10137
טש	-10138
▁המקומי	-10139
▁בתו	-10140
▁שרא	-10141
▁זרים	-10142
▁selected	-10143
חינה	-10144
txt	-10145
brew	-10146
▁הצרפתי	-10147
▁בתים	-10148
see	-10149
▁התפר	-10150
▁ידו	-10151
▁תוא	-10152
▁opening	-10153
פוק	-10154
▁הכוללת	-10155
▁אחסון	-10156
ests	-10157
▁תורת	-10158
▁ברכב	-10159
▁4,	-10160
מותת	-10161
▁ונה	-10162
make	-10163
▁כללית	-10164
סיקו	-10165
adata	-10166
▁aren	-10167
▁השפה	-10168
▁giving	-10169
▁eval	-10170
▁ועכשיו	-10171
▁סיימה	-10172
▁מקרי	-10173
▁בשו	-10174
▁ליגת	-10175
▁סרטון	-10176
▁הוסי	-10177
></	-10178
▁gir	-10179
▁ברזל	-10180
ליפה	-10181
▁הטל	-10182
▁המתאי	-10183
▁מגלה	-10184
true	-10185
▁sens	-10186
▁reduce	-10187
▁clos	-10188
▁Why	-10189
iding	-10190
▁רעיונות	-10191
▁היכן	-10192
41	-10193
▁סיטי	-10194
▁הפלשתי	-10195
job	-10196
▁יוצאים	-10197
▁בעלה	-10198
aste	-10199
▁גילה	-10200
▁docker	-10201
force	-10202
▁נסיעה	-10203
ship	-10204
▁sus	-10205
▁שיטות	-10206
נגליה	-10207
duc	-10208
▁Since	-10209
▁אימייל	-10210
▁תכנים	-10211
▁לוותר	-10212
▁מסכים	-10213
▁organization	-10214
▁models	-10215
▁לפעילות	-10216
▁East	-10217
▁שאול	-10218
▁מזכ	-10219
▁בבל	-10220
▁elements	-10221
AA	-10222
▁דווח	-10223
▁protect	-10224
▁ple	-10225
chan	-10226
נהלת	-10227
▁נעצר	-10228
Col	-10229
▁Hot	-10230
▁אילת	-10231
plugin	-10232
▁יהושע	-10233
▁כתבות	-10234
מנכ	-10235
▁ספרו	-10236
▁scen	-10237
▁רכישת	-10238
▁בכנס	-10239
▁לניהול	-10240
▁es	-10241
▁עמדת	-10242
▁נדל	-10243
▁במועדון	-10244
▁לבח	-10245
▁(1	-10246
מאים	-10247
▁ישר	-10248
▁כוכבים	-10249
▁ואחד	-10250
▁אבות	-10251
▁משתנה	-10252
▁His	-10253
▁לפתור	-10254
▁resource	-10255
רכן	-10256
שבת	-10257
▁למט	-10258
ollow	-10259
▁גרעי	-10260
▁אוטומטי	-10261
▁.\	-10262
▁Request	-10263
▁מורחב	-10264
▁לממשלה	-10265
▁יוק	-10266
▁להגיב	-10267
▁double	-10268
urb	-10269
▁מניות	-10270
▁חוויה	-10271
▁מינית	-10272
▁השע	-10273
▁ארגונים	-10274
מטכ	-10275
▁סח	-10276
▁Does	-10277
▁טוענים	-10278
space	-10279
לקטרו	-10280
▁בחירה	-10281
▁הדרום	-10282
ias	-10283
▁edit	-10284
▁קורונה	-10285
afe	-10286
▁ישיבת	-10287
▁עזר	-10288
▁טיול	-10289
זוג	-10290
ילן	-10291
info	-10292
▁בכי	-10293
▁אילן	-10294
▁חנויות	-10295
תיבה	-10296
קטור	-10297
גני	-10298
ניעת	-10299
▁מטרה	-10300
נטל	-10301
ומנים	-10302
My	-10303
▁הספק	-10304
ודע	-10305
▁San	-10306
▁להתאים	-10307
ares	-10308
▁מעוצ	-10309
▁piece	-10310
▁לימודים	-10311
orch	-10312
בוגרים	-10313
צין	-10314
▁החמישי	-10315
▁רחבה	-10316
▁highly	-10317
uel	-10318
עדי	-10319
▁למידה	-10320
▁חוף	-10321
▁הבק	-10322
erved	-10323
יקות	-10324
▁העיתון	-10325
▁גידול	-10326
NS	-10327
pc	-10328
▁הערבית	-10329
▁במלון	-10330
▁seeing	-10331
▁reflect	-10332
▁מחלות	-10333
iam	-10334
נוני	-10335
▁הלאה	-10336
▁המכשירים	-10337
▁sample	-10338
טיביים	-10339
▁חסי	-10340
▁והחל	-10341
ולרית	-10342
lying	-10343
בדו	-10344
▁שפי	-10345
פלל	-10346
▁Sept	-10347
▁Her	-10348
▁המנ	-10349
▁ימין	-10350
▁innov	-10351
▁הפועלים	-10352
▁שפר	-10353
▁Israel	-10354
▁opened	-10355
▁כיף	-10356
▁aim	-10357
▁Home	-10358
▁hear	-10359
▁הוחלט	-10360
▁הסביר	-10361
aby	-10362
▁IS	-10363
▁האנרגיה	-10364
▁לקבוצה	-10365
sk	-10366
פץ	-10367
אבי	-10368
▁circ	-10369
▁הנאשם	-10370
▁ער	-10371
▁100%	-10372
▁תעשיית	-10373
▁windows	-10374
▁describe	-10375
▁זיהוי	-10376
▁חושבת	-10377
▁benefits	-10378
יעת	-10379
▁פרא	-10380
actions	-10381
▁safety	-10382
שיו	-10383
▁מחזור	-10384
▁restaur	-10385
acing	-10386
▁הפיגוע	-10387
▁המשתתפים	-10388
▁nav	-10389
izations	-10390
סטון	-10391
hood	-10392
טליה	-10393
▁נדרש	-10394
▁עדכון	-10395
▁החיצ	-10396
▁locally	-10397
▁לעי	-10398
▁heav	-10399
▁האוניברסיטה	-10400
▁מודעות	-10401
▁איתנו	-10402
▁בטיחות	-10403
▁רפואה	-10404
rics	-10405
אביב	-10406
▁קווי	-10407
ייחוס	-10408
▁תושב	-10409
▁States	-10410
פלד	-10411
▁ופע	-10412
▁למעט	-10413
עויות	-10414
▁תרופות	-10415
חשבות	-10416
▁פעילויות	-10417
▁אריק	-10418
▁צפ	-10419
רגום	-10420
▁polit	-10421
▁מפעל	-10422
▁enabled	-10423
▁התעשייה	-10424
כתבה	-10425
▁בתוצאה	-10426
תחם	-10427
▁bottom	-10428
▁פנה	-10429
▁highlight	-10430
▁וחס	-10431
▁לאמנות	-10432
▁עברית	-10433
▁מגורים	-10434
▁themselves	-10435
En	-10436
▁לרב	-10437
▁תושבים	-10438
ארו	-10439
ודעות	-10440
▁טעי	-10441
ament	-10442
▁הולכת	-10443
▁בתולדות	-10444
בתם	-10445
▁אורן	-10446
▁former	-10447
▁מבוססת	-10448
▁התוצאות	-10449
▁לונדון	-10450
▁ציבורי	-10451
▁יהדות	-10452
▁12.	-10453
Get	-10454
▁זול	-10455
▁הצפון	-10456
רישות	-10457
▁trust	-10458
▁Har	-10459
VE	-10460
utorial	-10461
irth	-10462
▁פורט	-10463
▁מספרים	-10464
▁מפגש	-10465
▁עצמאי	-10466
▁length	-10467
▁לשנה	-10468
dist	-10469
▁שבעה	-10470
▁00	-10471
▁stra	-10472
▁מקי	-10473
%3	-10474
▁דיא	-10475
▁git	-10476
▁מסל	-10477
▁השיווק	-10478
▁בחצי	-10479
▁למשרד	-10480
▁numbers	-10481
5/	-10482
state	-10483
assets	-10484
▁stage	-10485
nHe	-10486
default	-10487
▁render	-10488
▁להתייחס	-10489
▁patients	-10490
▁ובהם	-10491
▁parents	-10492
[3]	-10493
▁הרצון	-10494
▁photos	-10495
▁לשינוי	-10496
.0	-10497
▁ערים	-10498
▁הכוונה	-10499
ושבי	-10500
▁הקים	-10501
TE	-10502
lean	-10503
▁סב	-10504
▁יעל	-10505
ocation	-10506
▁קומונז	-10507
▁פוליטית	-10508
▁הממוצע	-10509
▁warning	-10510
סאפ	-10511
process	-10512
▁החוקרים	-10513
▁national	-10514
לאם	-10515
-2.	-10516
▁לפרסם	-10517
▁region	-10518
sub	-10519
▁internal	-10520
▁עמי	-10521
▁מוזיאון	-10522
▁כוכב	-10523
▁באוניברסיטה	-10524
post	-10525
▁ואחרים	-10526
▁להשפיע	-10527
lay	-10528
פלי	-10529
טרכו	-10530
▁יעלה	-10531
▁partners	-10532
▁instructions	-10533
File	-10534
▁America	-10535
▁Dev	-10536
lement	-10537
????	-10538
▁בהקשר	-10539
▁manually	-10540
ילוס	-10541
ייבר	-10542
arlier	-10543
▁מעורב	-10544
▁enable	-10545
▁positive	-10546
פועל	-10547
▁המכונה	-10548
▁ממשיכים	-10549
▁מכיל	-10550
▁Afric	-10551
▁Maybe	-10552
▁לבקש	-10553
▁weekend	-10554
▁נועד	-10555
ynamic	-10556
▁בניסיון	-10557
▁סגל	-10558
▁ms	-10559
▁decl	-10560
▁mis	-10561
▁ורא	-10562
▁followed	-10563
▁Black	-10564
▁First	-10565
▁analysis	-10566
מוקר	-10567
▁מושג	-10568
▁במילים	-10569
▁ובג	-10570
▁fish	-10571
לר	-10572
▁duplic	-10573
▁כניסת	-10574
▁situation	-10575
▁Up	-10576
-26	-10577
-28	-10578
PC	-10579
▁HD	-10580
▁Good	-10581
▁בבת	-10582
uments	-10583
▁והבי	-10584
▁מאמינים	-10585
apan	-10586
▁join	-10587
pping	-10588
▁השראה	-10589
ya	-10590
▁בפיק	-10591
▁האדמה	-10592
-27	-10593
▁עיניים	-10594
וליה	-10595
▁Cap	-10596
▁ir	-10597
▁הדירה	-10598
גריה	-10599
▁עיבוד	-10600
emb	-10601
רטיס	-10602
▁icon	-10603
▁חדרי	-10604
▁הנוגע	-10605
▁המשפטים	-10606
חלטות	-10607
▁לבעלי	-10608
▁understanding	-10609
ערבות	-10610
▁נייד	-10611
▁notes	-10612
.[5]	-10613
▁אמיתית	-10614
OW	-10615
מרט	-10616
קיף	-10617
tools	-10618
itute	-10619
source	-10620
ודם	-10621
▁ולהע	-10622
▁שמורות	-10623
ND	-10624
▁לרח	-10625
▁ארוחת	-10626
▁בפתח	-10627
inition	-10628
dat	-10629
▁דוב	-10630
▁purpose	-10631
▁מוצלח	-10632
▁huge	-10633
▁player	-10634
▁row	-10635
▁וסט	-10636
▁שוש	-10637
▁בוח	-10638
▁במוס	-10639
▁העיתונ	-10640
3-	-10641
▁במבצע	-10642
nAll	-10643
ologies	-10644
▁סטארטאפ	-10645
▁האולי	-10646
דמנויות	-10647
וטנציא	-10648
▁המילים	-10649
▁activity	-10650
mar	-10651
▁כשמ	-10652
▁אשכנ	-10653
▁ואינו	-10654
▁checked	-10655
▁רשתות	-10656
▁Server	-10657
▁נהדר	-10658
תש	-10659
▁הפעלה	-10660
▁קוריאה	-10661
▁העיקרית	-10662
▁Ok	-10663
▁הוו	-10664
▁דלק	-10665
▁והכל	-10666
lim	-10667
create	-10668
לף	-10669
▁העלייה	-10670
נטינה	-10671
▁11.	-10672
שיאות	-10673
רידה	-10674
▁שעדיין	-10675
▁ענקית	-10676
gg	-10677
▁sav	-10678
▁House	-10679
עדכן	-10680
▁מטרת	-10681
▁המחלקה	-10682
▁אבק	-10683
ades	-10684
▁דורש	-10685
▁הרשויות	-10686
▁בגי	-10687
pg	-10688
▁בכלי	-10689
MC	-10690
דרג	-10691
acc	-10692
▁מוחמד	-10693
▁delete	-10694
ולית	-10695
▁שייך	-10696
?!	-10697
▁spot	-10698
▁discussion	-10699
Ind	-10700
▁להראות	-10701
urg	-10702
▁noticed	-10703
▁תרגום	-10704
And	-10705
▁באג	-10706
▁מנהלי	-10707
ירס	-10708
▁ענן	-10709
▁קצי	-10710
▁בתחילה	-10711
▁לקידום	-10712
▁daily	-10713
ריץ	-10714
2021	-10715
▁בגוגל	-10716
כליים	-10717
▁subs	-10718
▁developed	-10719
▁היקף	-10720
/6	-10721
▁Added	-10722
▁החלטת	-10723
▁mass	-10724
▁expand	-10725
מתם	-10726
ished	-10727
▁לגיל	-10728
▁costs	-10729
יישן	-10730
▁לדעתי	-10731
▁תוק	-10732
▁רוברט	-10733
3.0	-10734
Client	-10735
▁המחירים	-10736
מצב	-10737
▁תקף	-10738
▁ישנו	-10739
▁PC	-10740
▁אבר	-10741
▁שחלק	-10742
▁חני	-10743
▁הצעירים	-10744
ליאם	-10745
▁השירותים	-10746
aling	-10747
inner	-10748
▁האבטחה	-10749
▁ילדי	-10750
בורי	-10751
▁השרי	-10752
▁להקת	-10753
irtual	-10754
bum	-10755
▁הדיגיט	-10756
▁פרש	-10757
▁weight	-10758
▁Over	-10759
▁serve	-10760
Web	-10761
▁בתנאי	-10762
▁invol	-10763
▁בטרם	-10764
nOur	-10765
▁Port	-10766
▁רבין	-10767
▁drink	-10768
▁קיימות	-10769
מטרים	-10770
▁לאירוע	-10771
▁הגרעין	-10772
ורק	-10773
▁תחושה	-10774
▁attack	-10775
▁expert	-10776
▁Brit	-10777
▁average	-10778
ngth	-10779
5:	-10780
Time	-10781
▁Feb	-10782
▁כג	-10783
rust	-10784
פינה	-10785
amb	-10786
▁wood	-10787
▁מטוס	-10788
▁Pre	-10789
ependent	-10790
▁פורס	-10791
▁ומאפשר	-10792
ויס	-10793
nHere	-10794
▁הסופר	-10795
▁נוסעים	-10796
/7	-10797
▁resolve	-10798
▁optim	-10799
▁Friday	-10800
▁איננו	-10801
▁יומ	-10802
▁אוסף	-10803
▁plant	-10804
▁פוליטי	-10805
▁אמורה	-10806
▁הדגל	-10807
▁towards	-10808
undle	-10809
▁ולקבל	-10810
▁כשהיא	-10811
▁שמים	-10812
▁מיה	-10813
▁עופר	-10814
▁blo	-10815
▁showing	-10816
rast	-10817
▁הביניים	-10818
▁עזב	-10819
dep	-10820
▁המאבק	-10821
▁עבודתו	-10822
▁36	-10823
▁2003	-10824
▁Rel	-10825
▁להקל	-10826
▁materials	-10827
▁עג	-10828
DB	-10829
▁פועלת	-10830
▁הכללית	-10831
▁המנהל	-10832
▁ם	-10833
▁תתק	-10834
▁caused	-10835
▁בהע	-10836
▁qual	-10837
▁הזמנים	-10838
▁benefit	-10839
▁Vis	-10840
טוק	-10841
▁ממשק	-10842
▁חטיבת	-10843
▁סע	-10844
▁hour	-10845
▁הבט	-10846
▁welcome	-10847
la	-10848
▁opportunities	-10849
▁פון	-10850
▁press	-10851
ייני	-10852
▁כאב	-10853
פשרו	-10854
▁משכ	-10855
▁ובשנת	-10856
ורש	-10857
▁גבולות	-10858
▁installation	-10859
▁hor	-10860
פויות	-10861
▁פח	-10862
2500\	-10863
▁המסורת	-10864
טיחות	-10865
▁חייהם	-10866
▁publish	-10867
Ad	-10868
פכו	-10869
opping	-10870
ווא	-10871
מיקה	-10872
▁הדלת	-10873
▁דוגמת	-10874
▁האחים	-10875
▁credit	-10876
▁אינץ	-10877
▁המטוס	-10878
▁נקודה	-10879
▁construct	-10880
מליים	-10881
▁הסרטים	-10882
▁שוקולד	-10883
arp	-10884
atever	-10885
▁המכון	-10886
service	-10887
וחת	-10888
▁לתע	-10889
▁שהוצ	-10890
▁trigger	-10891
▁firm	-10892
▁120	-10893
▁allowed	-10894
שתיות	-10895
▁רחבי	-10896
nHowever	-10897
סיבה	-10898
עדות	-10899
▁הרפובליקה	-10900
▁שורה	-10901
▁meaning	-10902
▁stock	-10903
▁Sum	-10904
▁וזו	-10905
בנים	-10906
▁מדריך	-10907
דרגה	-10908
▁צפויים	-10909
פסד	-10910
ancy	-10911
▁דיסק	-10912
▁לטענת	-10913
▁והמו	-10914
חיית	-10915
ipped	-10916
ounced	-10917
▁נורא	-10918
▁סטודנטים	-10919
▁effort	-10920
nCh	-10921
▁האות	-10922
▁closing	-10923
סד	-10924
▁June	-10925
▁הקיימים	-10926
zy	-10927
▁origin	-10928
▁שפה	-10929
▁אישיות	-10930
▁picture	-10931
ertain	-10932
ags	-10933
▁המחוז	-10934
▁פיקוד	-10935
▁award	-10936
▁יעשה	-10937
כייה	-10938
itable	-10939
▁התכנית	-10940
▁LG	-10941
▁שנראה	-10942
▁עולים	-10943
זמה	-10944
▁כף	-10945
נצל	-10946
▁limited	-10947
ציר	-10948
level	-10949
▁הפלסטינית	-10950
▁מתחילה	-10951
▁אע	-10952
▁בעיצוב	-10953
▁campaign	-10954
ilies	-10955
aturday	-10956
ביד	-10957
שוי	-10958
▁dro	-10959
ופש	-10960
▁הזכות	-10961
יבים	-10962
▁שנערכה	-10963
טינג	-10964
▁div	-10965
EST	-10966
▁אופניים	-10967
▁הצרפתית	-10968
▁אביה	-10969
hips	-10970
Config	-10971
בקות	-10972
▁ומעלה	-10973
▁נגי	-10974
▁מקצועיים	-10975
▁גזע	-10976
▁התה	-10977
▁הקטנה	-10978
ara	-10979
▁gain	-10980
▁הפדר	-10981
▁Apple	-10982
▁לחודש	-10983
▁מסביב	-10984
esponse	-10985
▁החג	-10986
▁שמכ	-10987
▁parameters	-10988
▁פעל	-10989
▁כעבור	-10990
ריא	-10991
▁opp	-10992
▁גלעד	-10993
~~~~	-10994
▁בים	-10995
▁באופ	-10996
vc	-10997
▁ובל	-10998
▁somew	-10999
▁שבועיים	-11000
▁tree	-11001
טאות	-11002
▁Inc	-11003
▁אישום	-11004
Sc	-11005
▁respond	-11006
טורים	-11007
▁גבול	-11008
▁posted	-11009
idents	-11010
▁פסטיבל	-11011
iec	-11012
▁להשאיר	-11013
▁המערבית	-11014
▁characters	-11015
▁מסור	-11016
umentation	-11017
▁traditional	-11018
▁העבר	-11019
▁ידידות	-11020
▁שהוב	-11021
▁אופי	-11022
▁train	-11023
▁לערוך	-11024
▁ארוכות	-11025
asp	-11026
▁יצירה	-11027
▁ואר	-11028
▁consum	-11029
▁עבירות	-11030
פנות	-11031
▁led	-11032
▁sell	-11033
▁טענות	-11034
ישו	-11035
▁הכספים	-11036
טחוני	-11037
״ל	-11038
▁נציגי	-11039
▁ליצ	-11040
▁וכבר	-11041
▁אופנה	-11042
▁מתג	-11043
▁cloud	-11044
▁חומרי	-11045
hold	-11046
ואין	-11047
▁נדמה	-11048
לוף	-11049
ightly	-11050
eria	-11051
▁trip	-11052
▁serious	-11053
▁רוכ	-11054
▁המותג	-11055
▁נמצאו	-11056
▁ההשקעות	-11057
orrow	-11058
6:	-11059
[5	-11060
ta	-11061
קליטות	-11062
▁excellent	-11063
פטים	-11064
▁עשיר	-11065
rig	-11066
▁טק	-11067
▁ייס	-11068
▁ממוש	-11069
▁countries	-11070
▁ובד	-11071
arily	-11072
If	-11073
▁למטה	-11074
▁ויס	-11075
▁במרחב	-11076
▁מודיעין	-11077
▁אמון	-11078
▁logs	-11079
ael	-11080
ni	-11081
▁club	-11082
▁driver	-11083
UI	-11084
▁sorry	-11085
▁מרחוק	-11086
▁בהיקף	-11087
▁וואלה	-11088
▁סדרה	-11089
▁מומחים	-11090
▁אהבתי	-11091
iny	-11092
▁64	-11093
▁Street	-11094
▁מורכבת	-11095
▁לעתים	-11096
יישבות	-11097
▁שאולי	-11098
▁בחודשים	-11099
▁יחידת	-11100
sequ	-11101
)."	-11102
וכנת	-11103
ילחם	-11104
▁ההבדל	-11105
▁Design	-11106
▁תות	-11107
▁מקומי	-11108
▁שלל	-11109
▁זמני	-11110
▁Repro	-11111
▁Sam	-11112
▁ובמה	-11113
▁כשהם	-11114
▁Every	-11115
▁המאו	-11116
▁שפית	-11117
▁הרבים	-11118
▁המצלמה	-11119
idden	-11120
▁הכנסה	-11121
▁מייסד	-11122
▁הבניין	-11123
▁imm	-11124
▁בקבוק	-11125
▁Mag	-11126
▁המקדש	-11127
▁אנגליה	-11128
-29	-11129
▁אבטחת	-11130
ography	-11131
Request	-11132
▁מטי	-11133
▁מנהיג	-11134
eless	-11135
▁לתחום	-11136
סס	-11137
▁legal	-11138
IM	-11139
חול	-11140
▁Lab	-11141
▁יואב	-11142
▁מאוב	-11143
▁דיי	-11144
oday	-11145
▁goals	-11146
))\	-11147
▁אמן	-11148
▁הדג	-11149
▁הגורמים	-11150
iled	-11151
דיט	-11152
erry	-11153
▁bank	-11154
▁דואר	-11155
לישי	-11156
▁חלונות	-11157
1-	-11158
▁עריכה	-11159
▁purchase	-11160
]:	-11161
▁broad	-11162
▁יומיים	-11163
חסון	-11164
גרו	-11165
..."	-11166
rack	-11167
▁spend	-11168
▁חשבתי	-11169
▁הוצאות	-11170
▁להגדיל	-11171
▁collabor	-11172
_4:	-11173
iOi	-11174
▁warm	-11175
rowser	-11176
▁tom	-11177
▁מחירי	-11178
▁util	-11179
▁הרוסי	-11180
▁קראו	-11181
ריי	-11182
▁מרחב	-11183
▁usage	-11184
▁טו	-11185
▁עלולה	-11186
▁hair	-11187
otes	-11188
elect	-11189
▁יחידה	-11190
▁couldn	-11191
ntax	-11192
פתחת	-11193
▁אוסטרליה	-11194
▁AM	-11195
▁manage	-11196
▁להוכיח	-11197
▁מנע	-11198
▁שופ	-11199
ידוד	-11200
▁ביצע	-11201
▁הקשורים	-11202
▁שפע	-11203
Def	-11204
▁Def	-11205
▁סקס	-11206
▁בוודאי	-11207
FO	-11208
מעלה	-11209
▁דוקטור	-11210
כוני	-11211
▁תמצאו	-11212
▁כו	-11213
▁inform	-11214
▁בסביבה	-11215
מתין	-11216
▁נציג	-11217
▁תכונות	-11218
ford	-11219
▁Ste	-11220
▁דוכ	-11221
▁הפוליטית	-11222
חדש	-11223
ores	-11224
▁objects	-11225
”,	-11226
▁הקשור	-11227
▁הגרמנית	-11228
ruit	-11229
Par	-11230
▁smart	-11231
▁פנימי	-11232
▁Ne	-11233
▁וראש	-11234
▁upgrade	-11235
▁ישנן	-11236
▁שהוש	-11237
▁בשכונת	-11238
נהג	-11239
▁ahead	-11240
▁בשורה	-11241
▁למרכז	-11242
▁׳	-11243
▁ing	-11244
▁עשתה	-11245
▁dise	-11246
▁Em	-11247
וריים	-11248
▁מתחם	-11249
eah	-11250
▁רון	-11251
▁החשובים	-11252
▁דיוק	-11253
▁אגף	-11254
▁businesses	-11255
▁שמשת	-11256
▁לקו	-11257
▁שתהיה	-11258
▁adjust	-11259
▁דוגמאות	-11260
רנו	-11261
▁(2)	-11262
▁בתקשורת	-11263
▁האיר	-11264
▁לרכב	-11265
▁הופעת	-11266
▁argument	-11267
250	-11268
▁equipment	-11269
▁הקיים	-11270
:1	-11271
▁דרוש	-11272
▁ניצח	-11273
▁השיחה	-11274
044	-11275
nAt	-11276
▁החבר	-11277
▁הערבים	-11278
▁למשפחה	-11279
שינו	-11280
כוהול	-11281
▁dark	-11282
▁מכונה	-11283
▁נגישות	-11284
▁ויד	-11285
▁המוסד	-11286
גלו	-11287
▁לשר	-11288
▁פולין	-11289
▁Bug	-11290
▁רות	-11291
attle	-11292
10]	-11293
▁heat	-11294
▁breaking	-11295
▁דעתו	-11296
ולן	-11297
▁לרגל	-11298
-0.	-11299
fs	-11300
פטן	-11301
רגן	-11302
enty	-11303
▁הגרסה	-11304
▁theme	-11305
ovember	-11306
▁header	-11307
▁employees	-11308
================	-11309
בקה	-11310
דמה	-11311
ופלים	-11312
▁lack	-11313
▁המשבר	-11314
▁08	-11315
▁Germ	-11316
▁בסין	-11317
▁מתאימה	-11318
rought	-11319
▁נתניה	-11320
irit	-11321
ויזיון	-11322
רישה	-11323
▁prec	-11324
▁לילד	-11325
▁נמל	-11326
▁mat	-11327
▁הליך	-11328
▁הראשית	-11329
מרא	-11330
ציק	-11331
▁tele	-11332
8)	-11333
▁עני	-11334
▁בינה	-11335
▁מחז	-11336
זיות	-11337
▁צוד	-11338
▁ומשת	-11339
▁נוף	-11340
▁מלווה	-11341
ological	-11342
▁שיהיו	-11343
▁ושירות	-11344
▁growing	-11345
ffee	-11346
▁פסח	-11347
▁התס	-11348
▁כפול	-11349
imately	-11350
▁hands	-11351
מעה	-11352
▁July	-11353
▁ניסו	-11354
▁Support	-11355
********	-11356
▁finally	-11357
נאל	-11358
▁coverage	-11359
▁שטי	-11360
iant	-11361
▁October	-11362
▁יעיל	-11363
▁רפואית	-11364
▁death	-11365
שרו	-11366
ותן	-11367
rd	-11368
▁צרכ	-11369
▁המחוזי	-11370
irection	-11371
▁Project	-11372
(\	-11373
▁לאן	-11374
onday	-11375
▁צמוד	-11376
▁קילומטרים	-11377
nn	-11378
חתת	-11379
▁טיסה	-11380
▁רוני	-11381
ליש	-11382
erve	-11383
פסים	-11384
▁חלה	-11385
ובו	-11386
▁העות	-11387
isf	-11388
טוט	-11389
tes	-11390
▁לימודיו	-11391
asc	-11392
גדים	-11393
▁שיס	-11394
▁אוטומטית	-11395
▁למועד	-11396
▁הסיכון	-11397
▁לשיר	-11398
nimport	-11399
▁ההודעה	-11400
▁College	-11401
bu	-11402
דד	-11403
enior	-11404
▁בגן	-11405
▁הפול	-11406
וקו	-11407
▁listed	-11408
▁לדוגמא	-11409
חזר	-11410
▁איחוד	-11411
▁בחנות	-11412
▁Start	-11413
סוס	-11414
▁דגש	-11415
▁הפש	-11416
▁דיני	-11417
▁החוצה	-11418
▁חברתיות	-11419
▁רד	-11420
▁בתה	-11421
▁מפג	-11422
/#	-11423
ודיע	-11424
ילר	-11425
▁יפו	-11426
▁במכשיר	-11427
▁immediately	-11428
wood	-11429
▁הניס	-11430
▁סן	-11431
בדות	-11432
▁שמירה	-11433
tree	-11434
nCl	-11435
fast	-11436
▁מאזן	-11437
▁וצי	-11438
▁הכביש	-11439
דונים	-11440
▁בעזה	-11441
▁January	-11442
▁האחריות	-11443
▁הזיכרון	-11444
▁שניה	-11445
▁Power	-11446
▁מגדל	-11447
JS	-11448
▁הליכה	-11449
▁Ben	-11450
▁Sk	-11451
▁band	-11452
האם	-11453
ירור	-11454
ashing	-11455
▁imag	-11456
').	-11457
vest	-11458
▁זכר	-11459
▁והאי	-11460
ifications	-11461
linux	-11462
▁קובע	-11463
▁יוג	-11464
▁pred	-11465
▁מאמץ	-11466
▁קובי	-11467
▁פרטית	-11468
▁detail	-11469
▁failure	-11470
▁כלשהי	-11471
nThat	-11472
▁צבעים	-11473
ua	-11474
▁צר	-11475
▁Of	-11476
▁מצווה	-11477
▁נראית	-11478
▁התז	-11479
▁notice	-11480
▁looked	-11481
▁המקרה	-11482
▁למז	-11483
▁עצמך	-11484
▁שקורה	-11485
רוגים	-11486
▁סטנדר	-11487
▁spent	-11488
▁ליח	-11489
▁שהג	-11490
▁חוקרים	-11491
▁לקבוצת	-11492
▁סנט	-11493
וגמת	-11494
Set	-11495
▁סוכר	-11496
▁advice	-11497
▁הווי	-11498
native	-11499
▁קשת	-11500
▁שרוצה	-11501
ובסקי	-11502
▁יפן	-11503
▁משרדי	-11504
▁38	-11505
▁strength	-11506
▁visual	-11507
▁meant	-11508
▁ייחוד	-11509
ups	-11510
▁הנדל	-11511
▁Saturday	-11512
hav	-11513
ליג	-11514
▁לבק	-11515
rench	-11516
All	-11517
olf	-11518
▁5,	-11519
מפיאדת	-11520
_3	-11521
לחו	-11522
▁הבתים	-11523
▁השולחן	-11524
▁integration	-11525
▁גני	-11526
▁הכירו	-11527
▁במשטרה	-11528
docker	-11529
▁ועדיין	-11530
▁ותח	-11531
▁לכמה	-11532
▁produce	-11533
*\	-11534
▁זצ	-11535
▁באחת	-11536
אוט	-11537
nRe	-11538
▁חוזרים	-11539
yond	-11540
▁אלקטרוני	-11541
oom	-11542
▁רובי	-11543
▁שגור	-11544
בתא	-11545
▁דגל	-11546
▁September	-11547
root	-11548
▁מ־	-11549
▁לקוח	-11550
▁המהפכה	-11551
4.0	-11552
▁מצח	-11553
▁שעשו	-11554
▁שולח	-11555
▁עדות	-11556
▁מתקדמים	-11557
model	-11558
סיסי	-11559
▁except	-11560
ructure	-11561
▁lock	-11562
▁עצום	-11563
▁לסיום	-11564
▁המוות	-11565
▁יתרונות	-11566
▁began	-11567
▁בוע	-11568
גובות	-11569
▁בשום	-11570
▁לדאוג	-11571
▁ל־	-11572
status	-11573
▁מצלמות	-11574
זול	-11575
ilter	-11576
▁בסיבוב	-11577
lint	-11578
▁happened	-11579
eek	-11580
▁ההשפ	-11581
▁הרשימה	-11582
DS	-11583
ders	-11584
▁middle	-11585
▁הסוביי	-11586
▁השידור	-11587
releases	-11588
▁לחדר	-11589
▁suff	-11590
▁advant	-11591
אנ	-11592
div	-11593
לקום	-11594
▁חינו	-11595
▁פלוס	-11596
▁played	-11597
▁למשק	-11598
ospital	-11599
ציאו	-11600
<!---	-11601
מונד	-11602
▁Issue	-11603
▁ומספר	-11604
▁healthy	-11605
▁לזמן	-11606
▁195	-11607
▁chart	-11608
▁אליכם	-11609
▁architect	-11610
Run	-11611
conf	-11612
▁ויז	-11613
▁דירוג	-11614
▁Ke	-11615
input	-11616
udget	-11617
page	-11618
▁returned	-11619
▁exam	-11620
▁dead	-11621
▁conduct	-11622
▁behaviour	-11623
▁זיו	-11624
▁overall	-11625
▁statement	-11626
▁שוט	-11627
▁token	-11628
▁התואר	-11629
▁מופע	-11630
▁היית	-11631
▁ten	-11632
▁ממשיכה	-11633
▁seconds	-11634
▁מכם	-11635
▁דלא	-11636
press	-11637
%2	-11638
כתו	-11639
▁מספרת	-11640
▁Sorry	-11641
▁physical	-11642
▁ברחובות	-11643
inate	-11644
▁נרחב	-11645
▁במלחמה	-11646
כבת	-11647
▁השיטה	-11648
▁''	-11649
02	-11650
\")\	-11651
▁לעסקים	-11652
▁לפנה	-11653
▁ge	-11654
\",\"	-11655
▁סגור	-11656
▁Japan	-11657
▁Christmas	-11658
▁reporting	-11659
▁ותש	-11660
פצ	-11661
▁תוצאה	-11662
▁export	-11663
rote	-11664
חלק	-11665
▁ילדה	-11666
ופרת	-11667
יאוף	-11668
ainer	-11669
▁סוגים	-11670
▁ההשקעה	-11671
ייבות	-11672
patch	-11673
בקים	-11674
▁Create	-11675
▁הנשק	-11676
▁עליך	-11677
צתה	-11678
▁אליעזר	-11679
▁earlier	-11680
▁saying	-11681
RA	-11682
בתה	-11683
▁דקה	-11684
▁channel	-11685
▁במשק	-11686
SE	-11687
▁demon	-11688
▁מצליחים	-11689
▁בטלוויזיה	-11690
nOne	-11691
▁גיר	-11692
▁בקטג	-11693
porary	-11694
▁שתע	-11695
▁דוח	-11696
מורים	-11697
▁כתבי	-11698
cember	-11699
▁הרצאות	-11700
▁finished	-11701
▁Mr	-11702
▁בליגת	-11703
כבה	-11704
▁2018,	-11705
ZW	-11706
tw	-11707
▁סיבות	-11708
▁פונה	-11709
▁קריית	-11710
▁טוויטר	-11711
פלגת	-11712
800	-11713
▁Well	-11714
▁לתמוך	-11715
▁בבעלות	-11716
rie	-11717
▁ושות	-11718
▁לתקופה	-11719
▁מציגה	-11720
▁וגר	-11721
▁הארי	-11722
▁פונק	-11723
▁להופיע	-11724
help	-11725
▁דרמ	-11726
▁גילוי	-11727
▁ממוקם	-11728
▁לסיים	-11729
▁הרצליה	-11730
▁farm	-11731
▁להציל	-11732
▁ticket	-11733
▁בינלאומי	-11734
▁דיגיטלי	-11735
▁selection	-11736
nAny	-11737
▁שוליים	-11738
▁לענות	-11739
▁photo	-11740
▁בפריז	-11741
▁נותנים	-11742
Object	-11743
▁קשרים	-11744
▁אשראי	-11745
▁simpl	-11746
pass	-11747
igate	-11748
קדמיה	-11749
▁הוכר	-11750
call	-11751
itchen	-11752
▁הרכישה	-11753
▁became	-11754
house	-11755
▁לנצל	-11756
דיאל	-11757
▁שעת	-11758
▁straight	-11759
תיקון	-11760
▁לשלוט	-11761
▁mid	-11762
▁הצעה	-11763
▁חווית	-11764
▁לקי	-11765
▁בינוני	-11766
כרז	-11767
▁Department	-11768
On	-11769
ula	-11770
▁מגה	-11771
▁להאמין	-11772
▁ran	-11773
▁תפקידים	-11774
FA	-11775
▁חלו	-11776
▁מוגבל	-11777
▁exerc	-11778
▁המסלול	-11779
nection	-11780
▁Chrome	-11781
▁לבל	-11782
uffer	-11783
▁אושר	-11784
▁לביטחון	-11785
▁blue	-11786
▁זל	-11787
▁associated	-11788
▁USB	-11789
▁זרי	-11790
details	-11791
▁perhaps	-11792
▁וכת	-11793
ieces	-11794
▁בטלפון	-11795
▁gave	-11796
▁מורי	-11797
▁דיבר	-11798
יקרו	-11799
▁obs	-11800
▁זוכר	-11801
▁עוזר	-11802
▁בהיות	-11803
▁sites	-11804
פרש	-11805
מישה	-11806
▁בבני	-11807
▁url	-11808
▁הביקורת	-11809
▁הצט	-11810
ustain	-11811
nv	-11812
▁פנו	-11813
▁מבחן	-11814
▁column	-11815
▁נהר	-11816
▁beginning	-11817
▁בדף	-11818
orge	-11819
▁בקט	-11820
▁teams	-11821
▁wants	-11822
▁הלימוד	-11823
ומך	-11824
YX	-11825
חקן	-11826
▁עמוס	-11827
▁מנגנון	-11828
▁npm	-11829
▁בתורה	-11830
▁OK	-11831
▁mist	-11832
▁viol	-11833
▁שירי	-11834
▁עונות	-11835
▁prem	-11836
וגן	-11837
▁sounds	-11838
▁מעוניין	-11839
▁org	-11840
▁עליהן	-11841
▁נפצע	-11842
נסיבות	-11843
▁למידע	-11844
▁רציתי	-11845
▁להגדיר	-11846
▁מדליות	-11847
רגשות	-11848
▁טורקיה	-11849
Describe	-11850
דא	-11851
משו	-11852
▁Vent	-11853
▁המספר	-11854
▁הצלחת	-11855
▁בתיאטרון	-11856
▁בתחומים	-11857
▁סמו	-11858
▁המאמר	-11859
▁באים	-11860
▁החורף	-11861
▁לידה	-11862
▁שהוג	-11863
LL	-11864
▁trou	-11865
▁הולנד	-11866
▁וכתב	-11867
▁לכתבה	-11868
▁תביעה	-11869
▁ריב	-11870
▁frequ	-11871
▁causes	-11872
▁נייר	-11873
▁עמיד	-11874
▁שלטון	-11875
21.	-11876
מריקה	-11877
▁גוש	-11878
נתר	-11879
▁net	-11880
▁המקצועי	-11881
GV	-11882
▁מאחור	-11883
פיין	-11884
▁מסמכים	-11885
perature	-11886
▁48	-11887
▁שלט	-11888
למות	-11889
▁בתשלום	-11890
porate	-11891
▁external	-11892
וריא	-11893
fit	-11894
מצום	-11895
▁נמכ	-11896
▁משלה	-11897
▁calling	-11898
nCan	-11899
▁monitor	-11900
▁height	-11901
▁Sunday	-11902
מיום	-11903
▁ויט	-11904
ashion	-11905
▁cluster	-11906
▁families	-11907
Form	-11908
NT	-11909
לכו	-11910
▁Spec	-11911
▁Engine	-11912
ען	-11913
▁ונראה	-11914
▁ילדות	-11915
▁לפועל	-11916
חסן	-11917
zer	-11918
▁Time	-11919
▁lots	-11920
טרסים	-11921
▁מוחלט	-11922
band	-11923
▁לצוות	-11924
rix	-11925
▁ההצלחה	-11926
▁מעורבות	-11927
7:	-11928
anging	-11929
▁בטיפול	-11930
▁relationship	-11931
בסוף	-11932
▁ביקר	-11933
▁בקצב	-11934
▁dry	-11935
look	-11936
לינו	-11937
▁לדין	-11938
▁although	-11939
וויית	-11940
Key	-11941
▁שרוב	-11942
▁לחג	-11943
▁President	-11944
▁screenshot	-11945
▁לים	-11946
▁ידיים	-11947
צקי	-11948
▁גילו	-11949
▁מלו	-11950
▁בשדה	-11951
▁לכנסת	-11952
▁לפיכך	-11953
▁השער	-11954
▁שסי	-11955
You	-11956
▁מטוסי	-11957
▁מציעים	-11958
בהיר	-11959
▁250	-11960
▁operation	-11961
-01	-11962
זרי	-11963
▁שתוכלו	-11964
▁להרחיב	-11965
▁מאבק	-11966
▁העמ	-11967
טייה	-11968
▁absol	-11969
▁חופשית	-11970
▁nature	-11971
▁המתאים	-11972
CD	-11973
▁waiting	-11974
▁תלת	-11975
▁גירו	-11976
▁construction	-11977
With	-11978
▁ישי	-11979
▁סר	-11980
▁seek	-11981
%20	-11982
EX	-11983
▁שבמ	-11984
▁stories	-11985
▁פופ	-11986
▁מנהלים	-11987
ליי	-11988
▁Oh	-11989
New	-11990
▁לוב	-11991
nYour	-11992
ario	-11993
▁התכנון	-11994
נהלה	-11995
▁manager	-11996
OG	-11997
סטרטג	-11998
ounter	-11999
▁force	-12000
\".\	-12001
▁מייקל	-12002
▁חברו	-12003
▁מפתחים	-12004
▁fight	-12005
osh	-12006
▁חייל	-12007
BS	-12008
ico	-12009
▁משתתפים	-12010
מסגרת	-12011
▁הימין	-12012
▁Sub	-12013
▁מחוי	-12014
▁המשרה	-12015
▁חוזרת	-12016
▁מבנים	-12017
),\	-12018
▁מישראל	-12019
▁הארג	-12020
▁הקודש	-12021
▁transfer	-12022
▁העובד	-12023
▁camera	-12024
חשף	-12025
▁תמר	-12026
צועות	-12027
▁חמור	-12028
▁successfully	-12029
לווים	-12030
▁בגביע	-12031
▁בשיחה	-12032
▁helping	-12033
חושת	-12034
▁הפתיחה	-12035
▁נחשבת	-12036
▁guidelines	-12037
▁rule	-12038
▁בצל	-12039
▁לואי	-12040
▁אלג	-12041
▁הקונ	-12042
xml	-12043
▁warn	-12044
▁rights	-12045
ded	-12046
▁לשרת	-12047
eph	-12048
▁תוב	-12049
▁זוהר	-12050
מקור	-12051
▁Sol	-12052
▁transport	-12053
ירן	-12054
טיה	-12055
▁Av	-12056
▁שנאמר	-12057
יעוט	-12058
▁בתיק	-12059
▁הבדל	-12060
▁November	-12061
▁השתתפה	-12062
מוץ	-12063
▁זוגות	-12064
▁ומט	-12065
כולנו	-12066
▁סייבר	-12067
▁obtain	-12068
▁Che	-12069
around	-12070
▁הסמארטפון	-12071
▁arr	-12072
▁המיל	-12073
actor	-12074
▁לאשר	-12075
▁המצו	-12076
apping	-12077
▁המהלך	-12078
▁כראש	-12079
▁Should	-12080
▁פיו	-12081
.[6]	-12082
▁hous	-12083
▁לענייני	-12084
בילי	-12085
▁עקי	-12086
boot	-12087
▁הסבר	-12088
▁micro	-12089
▁pm	-12090
yaml	-12091
וגרפיה	-12092
▁stick	-12093
שלמי	-12094
▁בחק	-12095
overn	-12096
BI	-12097
▁Oper	-12098
▁logic	-12099
▁פרקים	-12100
▁בוחרים	-12101
='	-12102
▁קפי	-12103
▁סרטן	-12104
מטר	-12105
ourney	-12106
▁לסגור	-12107
Fi	-12108
צאו	-12109
▁Dist	-12110
AG	-12111
/9	-12112
▁בסרטון	-12113
▁תומך	-12114
▁India	-12115
▁החשוד	-12116
▁הכנסות	-12117
▁Closing	-12118
pi	-12119
▁כץ	-12120
▁Most	-12121
▁turned	-12122
▁coach	-12123
▁לעסוק	-12124
▁השעה	-12125
▁הצהריים	-12126
וציאלי	-12127
▁==	-12128
▁מודה	-12129
▁reasons	-12130
▁Hey	-12131
▁הציג	-12132
▁eye	-12133
▁מתרח	-12134
▁פרג	-12135
▁רכבת	-12136
ado	-12137
שיה	-12138
ga	-12139
לאס	-12140
▁neigh	-12141
▁עמדות	-12142
▁להצליח	-12143
igration	-12144
▁framework	-12145
▁Bre	-12146
▁הוראה	-12147
▁ניקול	-12148
▁עצמאית	-12149
▁מרט	-12150
▁הופיעה	-12151
▁Fixed	-12152
▁אנגלית	-12153
iforn	-12154
▁בתואר	-12155
ומדת	-12156
▁היחס	-12157
▁operations	-12158
defined	-12159
▁איגוד	-12160
▁older	-12161
▁המפתח	-12162
▁המוקד	-12163
▁Program	-12164
ideos	-12165
▁מטבח	-12166
▁כיסוי	-12167
▁השות	-12168
▁applied	-12169
▁license	-12170
▁Twitter	-12171
▁מסכי	-12172
▁פניו	-12173
table	-12174
▁נחמד	-12175
▁הנהלת	-12176
▁regarding	-12177
▁לשכנע	-12178
▁ופיתוח	-12179
▁הערכה	-12180
▁אחי	-12181
▁צמח	-12182
▁באיזה	-12183
▁קני	-12184
▁מצאו	-12185
▁מחק	-12186
▁חכמה	-12187
▁August	-12188
▁Business	-12189
▁הבנה	-12190
▁הומו	-12191
bert	-12192
▁announced	-12193
▁בניהול	-12194
▁חולה	-12195
NET	-12196
רופ	-12197
▁מסורת	-12198
▁attribute	-12199
▁ממק	-12200
▁כתיבת	-12201
▁attract	-12202
פיר	-12203
בטיה	-12204
ולדת	-12205
Status	-12206
▁חלל	-12207
כאון	-12208
נועת	-12209
צבים	-12210
▁ומב	-12211
▁האול	-12212
▁למנה	-12213
▁ראובן	-12214
ענות	-12215
וכנים	-12216
ipping	-12217
pb	-12218
▁יקבל	-12219
▁זמנית	-12220
וצמה	-12221
▁לצפייה	-12222
וללות	-12223
נטון	-12224
▁מנק	-12225
▁earn	-12226
מודדים	-12227
משיכו	-12228
urt	-12229
שנים	-12230
▁במשפט	-12231
Log	-12232
apple	-12233
▁2002	-12234
atively	-12235
▁צפייה	-12236
▁בשיעור	-12237
▁מקומית	-12238
▁שומר	-12239
מכר	-12240
avas	-12241
▁album	-12242
▁wonderful	-12243
מחיר	-12244
▁ואנו	-12245
▁לעצמי	-12246
▁באזורים	-12247
▁strategy	-12248
▁צורת	-12249
▁בנס	-12250
▁להנ	-12251
▁מרשים	-12252
istr	-12253
▁בסביבת	-12254
▁ותר	-12255
▁actions	-12256
tee	-12257
▁וינ	-12258
▁סרטי	-12259
▁Back	-12260
▁Mot	-12261
▁הסטודנטים	-12262
iance	-12263
▁בבור	-12264
writ	-12265
▁ושר	-12266
▁מתקדם	-12267
▁בטוחים	-12268
▁להשלים	-12269
API	-12270
▁התמיכה	-12271
דוני	-12272
▁העיניים	-12273
▁ter	-12274
▁wouldn	-12275
Class	-12276
ליגה	-12277
▁מתוק	-12278
oly	-12279
▁צרו	-12280
Inst	-12281
▁pod	-12282
▁האוק	-12283
▁ללמד	-12284
▁נגדו	-12285
EMA	-12286
▁מיידי	-12287
▁פלטפורמה	-12288
▁הגיב	-12289
▁הכלכלית	-12290
כד	-12291
▁עדן	-12292
▁נבנה	-12293
▁effects	-12294
▁כרטיסים	-12295
▁הרמטכ	-12296
size	-12297
▁בעמוד	-12298
▁צבאית	-12299
מאן	-12300
▁ופת	-12301
▁החיו	-12302
▁ההצעה	-12303
▁jobs	-12304
▁מנגד	-12305
▁subst	-12306
שתית	-12307
▁ליגה	-12308
▁ובהמשך	-12309
▁race	-12310
רעור	-12311
▁מועמד	-12312
▁צב	-12313
▁ביקורות	-12314
▁חוט	-12315
▁וכעת	-12316
▁תלמידי	-12317
▁sharing	-12318
alle	-12319
ously	-12320
▁ברשימת	-12321
▁ושני	-12322
גוש	-12323
וצץ	-12324
▁ואה	-12325
▁מתה	-12326
▁Miss	-12327
▁exhib	-12328
▁editor	-12329
ini	-12330
▁eat	-12331
cr	-12332
▁מהות	-12333
▁לחסוך	-12334
▁Monday	-12335
עדת	-12336
▁לירושלים	-12337
▁השאלות	-12338
▁ילי	-12339
▁המסת	-12340
▁מצליחה	-12341
זא	-12342
לש	-12343
▁קת	-12344
▁ביניהן	-12345
▁בשילוב	-12346
▁תיירות	-12347
▁Cour	-12348
▁תב	-12349
▁otherwise	-12350
▁מתו	-12351
▁מכונית	-12352
▁supports	-12353
▁(2	-12354
"[	-12355
סן	-12356
▁2001	-12357
isions	-12358
▁משטרה	-12359
▁China	-12360
▁ציור	-12361
▁משך	-12362
▁הרגע	-12363
▁מסק	-12364
nth	-12365
▁2017,	-12366
למו	-12367
▁Link	-12368
▁ועו	-12369
▁מדד	-12370
▁בחרו	-12371
▁חשמלי	-12372
ii	-12373
▁האגודה	-12374
args	-12375
▁sold	-12376
▁applicable	-12377
▁door	-12378
▁בפנים	-12379
▁vehicle	-12380
▁מצבי	-12381
▁המשקיעים	-12382
illing	-12383
▁מזרחי	-12384
▁histor	-12385
▁המשיכה	-12386
▁ובכלל	-12387
▁שאנשים	-12388
▁Wed	-12389
wide	-12390
istant	-12391
▁ויכול	-12392
▁מוכרים	-12393
פסל	-12394
▁שיטה	-12395
▁הפלסטינים	-12396
ML	-12397
UG	-12398
▁Expected	-12399
קרית	-12400
▁starts	-12401
▁failing	-12402
פוף	-12403
כיפה	-12404
▁resolved	-12405
▁ברזיל	-12406
▁אלח	-12407
inder	-12408
▁gold	-12409
zip	-12410
טוף	-12411
▁obvious	-12412
▁2016,	-12413
▁הציגה	-12414
▁סגנון	-12415
▁מרגישים	-12416
600	-12417
ounce	-12418
▁ERR	-12419
▁לגור	-12420
ses	-12421
▁דיור	-12422
▁אינטל	-12423
▁דלתות	-12424
▁עפ	-12425
כבות	-12426
rown	-12427
▁דונ	-12428
▁ואתה	-12429
▁Green	-12430
▁מפתיע	-12431
▁וכש	-12432
▁שנוע	-12433
▁בעבוד	-12434
▁בבסיס	-12435
כיה	-12436
ederal	-12437
▁glass	-12438
▁מכוניות	-12439
▁למוות	-12440
▁נפתלי	-12441
▁proced	-12442
▁particularly	-12443
▁22:	-12444
▁אפי	-12445
▁בפס	-12446
▁java	-12447
▁פרסי	-12448
tada	-12449
▁ונס	-12450
▁transform	-12451
:15	-12452
▁News	-12453
▁שותפים	-12454
▁influ	-12455
▁served	-12456
▁להילחם	-12457
ifornia	-12458
▁boot	-12459
▁פעילים	-12460
▁Met	-12461
▁attend	-12462
nm	-12463
▁בממוצע	-12464
▁December	-12465
▁internet	-12466
400	-12467
▁קרח	-12468
▁נאלץ	-12469
▁primary	-12470
▁בשעת	-12471
▁האקדמיה	-12472
▁individuals	-12473
format	-12474
▁בכדור	-12475
▁רגשות	-12476
nDo	-12477
▁מדיה	-12478
▁emerg	-12479
▁username	-12480
nNow	-12481
▁היצירה	-12482
▁תשתיות	-12483
▁האלקטרו	-12484
rief	-12485
RM	-12486
▁סכ	-12487
ומרי	-12488
▁ריח	-12489
▁apps	-12490
estival	-12491
▁בבריטניה	-12492
▁Once	-12493
▁יופי	-12494
▁רמות	-12495
upp	-12496
aven	-12497
▁הרופא	-12498
▁למכירה	-12499
Service	-12500
▁mechan	-12501
▁owners	-12502
▁המובילים	-12503
נאט	-12504
acity	-12505
IA	-12506
ליטת	-12507
צרית	-12508
igned	-12509
▁סיס	-12510
▁Prov	-12511
▁constant	-12512
ialog	-12513
▁states	-12514
inding	-12515
▁עלויות	-12516
חזור	-12517
כנסה	-12518
emo	-12519
▁ששת	-12520
▁בהתאמה	-12521
לימה	-12522
State	-12523
רוצים	-12524
▁README	-12525
▁היסוד	-12526
▁experienced	-12527
חתית	-12528
dir	-12529
▁ההק	-12530
ercial	-12531
aly	-12532
חשבו	-12533
▁wra	-12534
▁להורדה	-12535
ונתו	-12536
endor	-12537
▁הפנימי	-12538
▁בענף	-12539
▁שוטרים	-12540
sv	-12541
▁King	-12542
ייפ	-12543
▁Big	-12544
▁provider	-12545
אתו	-12546
▁sleep	-12547
▁סמל	-12548
Value	-12549
▁ידעתי	-12550
▁עלולים	-12551
▁schools	-12552
ולמו	-12553
ולל	-12554
▁היצר	-12555
▁mult	-12556
▁movie	-12557
▁challenge	-12558
▁עבורו	-12559
▁checks	-12560
▁מוני	-12561
entially	-12562
▁Even	-12563
▁לדון	-12564
▁דומ	-12565
▁שהיתה	-12566
▁33	-12567
▁awesome	-12568
▁feeling	-12569
▁submitting	-12570
▁אחרונות	-12571
לישה	-12572
unte	-12573
▁לפק	-12574
▁פרסים	-12575
▁הקטנים	-12576
▁להתקיים	-12577
▁מלכת	-12578
▁bi	-12579
ango	-12580
בחין	-12581
▁נפל	-12582
▁Steps	-12583
▁חות	-12584
▁להחזיק	-12585
▁פוטנציאל	-12586
▁Association	-12587
▁הכלל	-12588
avascript	-12589
▁סמארט	-12590
ילס	-12591
ביאו	-12592
עורר	-12593
▁opin	-12594
FC	-12595
▁Arch	-12596
▁המחלה	-12597
▁מקבלת	-12598
▁Hol	-12599
▁פומ	-12600
istics	-12601
סקנה	-12602
▁נרח	-12603
▁לפיה	-12604
▁cache	-12605
▁exists	-12606
כירות	-12607
▁התיק	-12608
▁פירוש	-12609
ואט	-12610
▁אבנים	-12611
▁ברציפות	-12612
▁commands	-12613
▁16.	-12614
▁אנדר	-12615
▁בטוחה	-12616
ראשון	-12617
▁אמזון	-12618
▁combin	-12619
▁commercial	-12620
▁מיס	-12621
▁הקבלה	-12622
אוס	-12623
▁34	-12624
▁__	-12625
▁התנאים	-12626
▁סוללה	-12627
▁הקיבוץ	-12628
▁אנוש	-12629
▁קונג	-12630
▁2019,	-12631
▁להתחבר	-12632
▁accur	-12633
▁מעקב	-12634
זכר	-12635
>`	-12636
▁הגיל	-12637
▁Core	-12638
▁האהבה	-12639
כבר	-12640
Hand	-12641
▁מרצ	-12642
▁מגזין	-12643
▁Som	-12644
▁acqu	-12645
▁flex	-12646
▁היועץ	-12647
▁הביטוי	-12648
cho	-12649
▁interview	-12650
isc	-12651
▁המגיע	-12652
▁candid	-12653
נדים	-12654
▁השכר	-12655
ייקטים	-12656
▁NOT	-12657
▁הצפוני	-12658
חקרים	-12659
▁הקורס	-12660
ouncil	-12661
▁Cloud	-12662
צוב	-12663
▁בעיתון	-12664
▁לעובדים	-12665
▁Network	-12666
▁מדויק	-12667
▁עות	-12668
▁assess	-12669
▁increasing	-12670
:10	-12671
▁Commit	-12672
▁מוסיפים	-12673
▁קרק	-12674
▁2015,	-12675
מכת	-12676
▁PM	-12677
▁בביצוע	-12678
▁variables	-12679
▁נלח	-12680
▁מבקר	-12681
▁דנ	-12682
▁יתכן	-12683
bing	-12684
▁מיקרו	-12685
▁ניצחו	-12686
▁מקומיים	-12687
▁ונות	-12688
▁רכש	-12689
<!--\	-12690
▁birth	-12691
▁convers	-12692
▁דיווחים	-12693
▁הפרטיות	-12694
▁הביאו	-12695
▁הבדיקה	-12696
▁אלטרנטי	-12697
▁Environment	-12698
▁brought	-12699
ald	-12700
[4].	-12701
▁שעון	-12702
▁המייל	-12703
למד	-12704
▁במתחם	-12705
▁המשטר	-12706
ustr	-12707
▁גרא	-12708
▁שבט	-12709
▁להחליט	-12710
arant	-12711
▁הניסיון	-12712
▁האנט	-12713
▁ידועה	-12714
Not	-12715
חשבת	-12716
▁שהב	-12717
וציה	-12718
▁רישום	-12719
תרבות	-12720
▁drug	-12721
▁הפסקת	-12722
▁argu	-12723
▁המפתחים	-12724
▁ליאור	-12725
▁recipe	-12726
CP	-12727
טגי	-12728
ifier	-12729
update	-12730
▁דגים	-12731
▁האנג	-12732
▁aspect	-12733
osen	-12734
▁המיני	-12735
iable	-12736
▁carry	-12737
▁גייסה	-12738
▁הצילום	-12739
▁13.	-12740
▁ונג	-12741
cles	-12742
nPro	-12743
▁הממוק	-12744
▁כתבו	-12745
▁מדור	-12746
▁satisf	-12747
▁הבעלים	-12748
ocket	-12749
▁במחקר	-12750
▁weather	-12751
ריח	-12752
▁ואכן	-12753
▁הדמות	-12754
▁למלחמה	-12755
▁השופטים	-12756
esh	-12757
יוויד	-12758
▁למוע	-12759
▁בקיצור	-12760
▁passing	-12761
ye	-12762
▁רוי	-12763
query	-12764
▁onto	-12765
▁לחקור	-12766
▁Ext	-12767
פיסה	-12768
▁מיועד	-12769
▁culture	-12770
▁ידעו	-12771
▁ראינו	-12772
▁advance	-12773
▁הנבחרים	-12774
eff	-12775
▁אמנים	-12776
▁המודיעין	-12777
river	-12778
nand	-12779
▁investment	-12780
block	-12781
▁dream	-12782
▁אמונה	-12783
▁המיוע	-12784
▁לנושא	-12785
שרדי	-12786
אמת	-12787
▁בחול	-12788
קוין	-12789
▁impl	-12790
▁pool	-12791
▁בווי	-12792
וגי	-12793
▁טיסות	-12794
▁חיצוני	-12795
▁measure	-12796
abel	-12797
▁דיפלומ	-12798
▁מצפה	-12799
▁הצבע	-12800
▁לכאן	-12801
▁החיבור	-12802
ניע	-12803
screen	-12804
▁בדקה	-12805
▁signed	-12806
▁זכוכית	-12807
▁commits	-12808
▁David	-12809
▁ותע	-12810
▁שאלו	-12811
▁demand	-12812
▁promot	-12813
▁רחל	-12814
הד	-12815
סקר	-12816
▁heard	-12817
pace	-12818
wiki	-12819
▁Pat	-12820
▁מחבלים	-12821
▁הקיצ	-12822
andbox	-12823
געים	-12824
▁annual	-12825
▁גבוהות	-12826
▁הדמויות	-12827
types	-12828
▁מעדי	-12829
▁התקיים	-12830
▁managed	-12831
▁shop	-12832
▁והופ	-12833
▁למות	-12834
▁static	-12835
anged	-12836
ruary	-12837
▁תשתית	-12838
▁pieces	-12839
agon	-12840
פשים	-12841
▁נחת	-12842
plete	-12843
▁במערב	-12844
▁נוכחות	-12845
▁נוחה	-12846
▁רגש	-12847
▁פסיכ	-12848
FF	-12849
▁AS	-12850
write	-12851
▁מעשי	-12852
▁קולי	-12853
▁budget	-12854
▁מיוחדות	-12855
▁ברע	-12856
▁לעתיד	-12857
▁ארז	-12858
▁לומדים	-12859
▁סיור	-12860
▁קישורים	-12861
icious	-12862
▁בבלוג	-12863
▁להגנת	-12864
related	-12865
▁larger	-12866
dot	-12867
▁surround	-12868
-1,	-12869
11]	-12870
ptions	-12871
אנה	-12872
▁בכתבה	-12873
▁ארוכים	-12874
cp	-12875
▁לוא	-12876
▁השלמת	-12877
7684	-12878
▁1999	-12879
▁helped	-12880
etic	-12881
▁מהל	-12882
▁אישר	-12883
▁שמטר	-12884
▁סביבת	-12885
▁הגולשים	-12886
▁הכהן	-12887
▁הקומ	-12888
▁Office	-12889
▁תשובות	-12890
טואלי	-12891
▁משרת	-12892
▁האמריקנית	-12893
▁hotel	-12894
▁alternative	-12895
Iiw	-12896
כנסת	-12897
▁הסו	-12898
צטדיון	-12899
▁קבלה	-12900
▁החרדי	-12901
▁חיילי	-12902
▁תחבורה	-12903
▁עמותת	-12904
▁הייצור	-12905
vm	-12906
▁ומז	-12907
▁Enter	-12908
▁אמורים	-12909
▁הפלטפורמה	-12910
▁קשי	-12911
▁Club	-12912
▁יתקיים	-12913
▁משתמשי	-12914
▁proposed	-12915
TA	-12916
▁gar	-12917
▁בקור	-12918
▁רלוונטי	-12919
סקות	-12920
only	-12921
▁הכוכבים	-12922
ייסים	-12923
▁לכלל	-12924
סטין	-12925
▁temperature	-12926
▁nut	-12927
▁במשקל	-12928
▁הופכת	-12929
▁reve	-12930
select	-12931
וין	-12932
▁הצלח	-12933
▁המעור	-12934
term	-12935
▁efficient	-12936
▁ביתו	-12937
▁לחימה	-12938
respond	-12939
7%	-12940
▁כשאני	-12941
▁לשחרר	-12942
▁הנסיעה	-12943
▁arri	-12944
▁wall	-12945
▁הערים	-12946
▁basis	-12947
▁השתתפות	-12948
▁שעשה	-12949
▁Would	-12950
▁ult	-12951
▁\\	-12952
פורמה	-12953
▁בחיל	-12954
iter	-12955
rary	-12956
▁Pal	-12957
▁JSON	-12958
▁ושאר	-12959
▁המזרחי	-12960
kit	-12961
▁יזמים	-12962
▁ולעיתים	-12963
ults	-12964
▁מחפש	-12965
▁ניצחה	-12966
▁ההייטק	-12967
▁הניצחון	-12968
Ijo	-12969
Microsoft	-12970
▁2:	-12971
▁הרפואה	-12972
▁0\	-12973
▁floor	-12974
▁technical	-12975
▁מחשבה	-12976
internal	-12977
▁route	-12978
טלר	-12979
ומרה	-12980
ומוני	-12981
▁Note	-12982
▁authent	-12983
▁Pri	-12984
▁הקה	-12985
▁raise	-12986
▁הדתית	-12987
▁השעות	-12988
▁קרובים	-12989
▁מרה	-12990
▁תעשה	-12991
▁אלן	-12992
graph	-12993
▁לחשוף	-12994
▁ממלכת	-12995
▁באוויר	-12996
▁חנוכה	-12997
▁בפסטיבל	-12998
ears	-12999
▁סמי	-13000
▁עסקה	-13001
עין	-13002
▁להסיר	-13003
טקט	-13004
סני	-13005
▁שדות	-13006
▁introduced	-13007
▁מטען	-13008
enkins	-13009
▁להודות	-13010
▁creative	-13011
Net	-13012
▁קיד	-13013
▁offering	-13014
▁boo	-13015
▁inval	-13016
usion	-13017
▁הכרח	-13018
▁מובילה	-13019
▁ממליץ	-13020
ora	-13021
▁גלריה	-13022
▁native	-13023
ודעת	-13024
▁partner	-13025
▁מתנד	-13026
▁סובל	-13027
ירקטור	-13028
▁קמפיין	-13029
▁הקפ	-13030
▁views	-13031
▁beyond	-13032
בינט	-13033
▁סדנאות	-13034
▁רשימה	-13035
store	-13036
▁felt	-13037
▁California	-13038
osal	-13039
▁מייד	-13040
▁מסיבות	-13041
▁colors	-13042
▁scroll	-13043
▁המין	-13044
▁כשנה	-13045
▁שתק	-13046
▁חלקית	-13047
DE	-13048
\")	-13049
▁טס	-13050
cell	-13051
▁יקבלו	-13052
▁צעירה	-13053
▁לוין	-13054
mat	-13055
▁המחבל	-13056
▁github	-13057
גלי	-13058
Path	-13059
▁owner	-13060
דורה	-13061
▁whe	-13062
▁שאותו	-13063
wid	-13064
ivery	-13065
▁השחור	-13066
▁נמשך	-13067
זכות	-13068
>.	-13069
▁המקורית	-13070
▁הרגל	-13071
▁חשיבה	-13072
▁שיחקה	-13073
▁הפוליטי	-13074
▁אחדות	-13075
▁ראשוני	-13076
▁10,	-13077
▁לקרי	-13078
▁son	-13079
▁האחד	-13080
▁determine	-13081
▁לשו	-13082
פשטות	-13083
▁חייה	-13084
▁cast	-13085
▁שנעשה	-13086
▁בטל	-13087
▁מיש	-13088
summary	-13089
▁בתשובה	-13090
▁ליווי	-13091
▁minor	-13092
▁finding	-13093
▁checking	-13094
▁למנות	-13095
nNo	-13096
aint	-13097
▁בגד	-13098
▁טילים	-13099
▁נכסים	-13100
function	-13101
▁described	-13102
inn	-13103
▁שאחרי	-13104
exec	-13105
▁השלב	-13106
▁מפות	-13107
▁אסיה	-13108
▁יעד	-13109
▁סני	-13110
▁wrote	-13111
▁מתכונים	-13112
▁דרכי	-13113
▁profile	-13114
▁degree	-13115
▁הסיבות	-13116
▁מכונות	-13117
case	-13118
▁נשל	-13119
▁vict	-13120
▁החדר	-13121
▁הגשת	-13122
▁קיץ	-13123
▁הכותרת	-13124
▁לשתי	-13125
▁האישית	-13126
▁ודאי	-13127
By	-13128
▁תאי	-13129
▁extrem	-13130
שרדים	-13131
▁wild	-13132
▁lif	-13133
▁קושי	-13134
▁גוט	-13135
▁המודל	-13136
קיפות	-13137
▁המלו	-13138
angular	-13139
▁symbol	-13140
▁צעדים	-13141
▁מצלמה	-13142
▁pictures	-13143
▁דמותו	-13144
▁largest	-13145
▁essential	-13146
oms	-13147
0.0.	-13148
▁```	-13149
▁האתרים	-13150
▁הסייבר	-13151
ida	-13152
▁תמונת	-13153
▁טענו	-13154
▁שקרה	-13155
▁בקשת	-13156
▁בגדים	-13157
▁Bel	-13158
sumer	-13159
ארצות	-13160
▁ולכל	-13161
ארית	-13162
▁wed	-13163
▁shape	-13164
זהר	-13165
▁לעונה	-13166
מפרטורה	-13167
▁ברוסיה	-13168
bon	-13169
▁קנדה	-13170
▁ייחודית	-13171
▁המבו	-13172
(.	-13173
iOS	-13174
ציבות	-13175
▁הייח	-13176
▁הדיווח	-13177
▁הנכונה	-13178
▁2023	-13179
▁גוד	-13180
▁ומאז	-13181
▁react	-13182
▁ענף	-13183
▁שהד	-13184
ulia	-13185
ודקא	-13186
▁בהי	-13187
▁משע	-13188
▁הגולן	-13189
▁ויליאם	-13190
ronic	-13191
▁ובהת	-13192
▁Click	-13193
-31	-13194
▁במונ	-13195
יצד	-13196
rupt	-13197
פיקה	-13198
▁תעודת	-13199
▁conver	-13200
')\	-13201
../	-13202
▁iPhone	-13203
▁הכנסייה	-13204
מלים	-13205
▁Phil	-13206
▁רשאי	-13207
▁court	-13208
▁מבחר	-13209
▁Class	-13210
▁בלשון	-13211
רוויח	-13212
▁האמור	-13213
▁Ant	-13214
▁התיירות	-13215
▁הכלי	-13216
▁המוכר	-13217
▁(`	-13218
▁whatever	-13219
▁שמר	-13220
▁בהתחלה	-13221
▁התקציב	-13222
▁הזר	-13223
rial	-13224
▁dog	-13225
▁בתוספת	-13226
▁Del	-13227
▁[\	-13228
▁שחקני	-13229
▁אשקלון	-13230
▁Mem	-13231
▁הרחבה	-13232
/14	-13233
iLCJ	-13234
▁שנס	-13235
▁ההכר	-13236
▁באורך	-13237
▁התחתון	-13238
▁פלסטינים	-13239
מוח	-13240
▁Law	-13241
▁loved	-13242
RT	-13243
ker	-13244
SI	-13245
▁הדוג	-13246
▁התנג	-13247
▁Object	-13248
▁במצרים	-13249
▁שיט	-13250
▁topic	-13251
▁גרסאות	-13252
▁לאס	-13253
▁הציע	-13254
▁לצלם	-13255
▁האישום	-13256
דיקת	-13257
▁פריז	-13258
▁התברר	-13259
▁Council	-13260
:"	-13261
שווי	-13262
▁שהוע	-13263
ליחות	-13264
▁Market	-13265
▁ציר	-13266
סיפור	-13267
▁בטענה	-13268
▁שכולם	-13269
▁מצפון	-13270
example	-13271
ארח	-13272
▁ובלי	-13273
▁לרדת	-13274
▁נפגע	-13275
▁המשימה	-13276
sdk	-13277
nter	-13278
▁התב	-13279
▁increased	-13280
מטי	-13281
▁מחבר	-13282
▁European	-13283
▁covered	-13284
▁dedicated	-13285
▁מחכה	-13286
▁כלב	-13287
צק	-13288
▁rock	-13289
▁המקומות	-13290
!)	-13291
▁המאפשרת	-13292
▁לבנים	-13293
▁Feature	-13294
▁הרביעית	-13295
SL	-13296
▁הקפה	-13297
▁ביא	-13298
▁initi	-13299
▁במכון	-13300
▁עובדות	-13301
▁במז	-13302
▁מהכ	-13303
כנולוגיות	-13304
קסון	-13305
▁שהפך	-13306
abilities	-13307
pkgs	-13308
▁מרים	-13309
▁thoughts	-13310
רתו	-13311
▁בבאר	-13312
▁הבעיות	-13313
SA	-13314
▁משימות	-13315
!<	-13316
▁14.	-13317
ייבים	-13318
▁בלוג	-13319
▁הזמר	-13320
▁עצמנו	-13321
▁להורים	-13322
RC	-13323
nWhile	-13324
group	-13325
▁מוסיף	-13326
▁העלה	-13327
▁שרות	-13328
▁בדמות	-13329
nCom	-13330
▁חברתיים	-13331
▁Currently	-13332
EMAIL	-13333
oul	-13334
▁לגר	-13335
ולוגיות	-13336
next	-13337
▁מובילים	-13338
inated	-13339
▁לארצות	-13340
▁prices	-13341
▁demonstr	-13342
צגת	-13343
ליחת	-13344
לקים	-13345
▁חנה	-13346
▁ובית	-13347
▁נשוי	-13348
▁tasks	-13349
▁בינלאומית	-13350
▁ממת	-13351
▁המכירות	-13352
dec	-13353
ילתה	-13354
▁הלוי	-13355
▁מירי	-13356
android	-13357
▁remote	-13358
▁אייפון	-13359
▁קטגוריות	-13360
▁password	-13361
eat	-13362
▁לחו	-13363
▁המועד	-13364
▁יגיעו	-13365
aled	-13366
agram	-13367
▁בהשתתפות	-13368
UN	-13369
מעו	-13370
▁Bu	-13371
Text	-13372
גיק	-13373
isation	-13374
▁Security	-13375
tenance	-13376
\\\\	-13377
▁coll	-13378
▁חוקר	-13379
/2021	-13380
▁בעבור	-13381
▁traffic	-13382
▁List	-13383
▁developing	-13384
▁הלכות	-13385
▁פיזית	-13386
▁שזכה	-13387
▁תעופה	-13388
▁appreciate	-13389
▁רמי	-13390
▁הכרה	-13391
▁הסכי	-13392
▁מאפשרים	-13393
eries	-13394
/8	-13395
▁ביבי	-13396
▁חודשי	-13397
▁church	-13398
▁handling	-13399
▁happening	-13400
▁סיו	-13401
▁certainly	-13402
מתה	-13403
▁מעבד	-13404
ancing	-13405
▁הסע	-13406
▁האינט	-13407
▁שבק	-13408
פולים	-13409
▁עיתונאים	-13410
fox	-13411
▁Road	-13412
▁מחנה	-13413
רכיטקט	-13414
חקים	-13415
▁אשה	-13416
▁צינ	-13417
▁ומור	-13418
▁לאחת	-13419
▁keeping	-13420
lam	-13421
▁Services	-13422
▁מעניינת	-13423
נרים	-13424
▁העיקריים	-13425
▁מודע	-13426
▁לטווח	-13427
oz	-13428
▁הגרמנים	-13429
עבד	-13430
אף	-13431
▁לקול	-13432
נקי	-13433
▁לכי	-13434
hd	-13435
▁נוע	-13436
▁הנזק	-13437
▁הספיק	-13438
▁צורה	-13439
▁Management	-13440
▁מסתבר	-13441
צאי	-13442
זקים	-13443
ובלים	-13444
▁משרות	-13445
Act	-13446
strap	-13447
▁keys	-13448
▁לחזק	-13449
ילון	-13450
▁Team	-13451
▁לשיפור	-13452
ידושים	-13453
anned	-13454
▁נראים	-13455
▁הסינית	-13456
יהוי	-13457
יסוי	-13458
▁הישן	-13459
▁לצבא	-13460
▁liter	-13461
▁עשרים	-13462
▁Remove	-13463
זרחים	-13464
▁העסקי	-13465
▁ממס	-13466
▁העין	-13467
▁כתיבה	-13468
▁מכונת	-13469
▁connected	-13470
▁jud	-13471
▁חט	-13472
▁עצמכם	-13473
▁משמעותיים	-13474
PN	-13475
▁SDK	-13476
▁מחלה	-13477
▁deprec	-13478
▁יורו	-13479
▁אלפים	-13480
▁קוט	-13481
▁patient	-13482
▁הגן	-13483
ודרת	-13484
ossible	-13485
weak	-13486
ulate	-13487
▁guys	-13488
▁הארו	-13489
▁הרפוא	-13490
▁השעון	-13491
▁הפרלמנט	-13492
▁לוד	-13493
פרסמים	-13494
▁api	-13495
▁fab	-13496
▁לאלו	-13497
▁responsible	-13498
gor	-13499
▁הטרי	-13500
▁ירדן	-13501
▁Music	-13502
▁star	-13503
טיקאים	-13504
▁police	-13505
▁בתוכו	-13506
expected	-13507
▁ועי	-13508
▁חיובי	-13509
▁journey	-13510
▁Research	-13511
▁מהב	-13512
plates	-13513
חלון	-13514
▁tal	-13515
▁Node	-13516
▁calcul	-13517
▁החברתי	-13518
▁אהרן	-13519
▁ideal	-13520
▁דנה	-13521
▁flav	-13522
sych	-13523
▁עוף	-13524
▁בעיית	-13525
▁conven	-13526
▁תולדות	-13527
▁ביישוב	-13528
II	-13529
פליקס	-13530
▁ברכת	-13531
othing	-13532
▁מצאתי	-13533
EM	-13534
▁וזהו	-13535
▁מוסק	-13536
▁eyes	-13537
▁חמים	-13538
pha	-13539
▁תו	-13540
verse	-13541
▁enhance	-13542
▁מכירת	-13543
▁סוכנות	-13544
ומט	-13545
ילומים	-13546
▁numer	-13547
▁college	-13548
וטית	-13549
▁trade	-13550
Work	-13551
Event	-13552
▁סמכות	-13553
▁garden	-13554
▁הצעירה	-13555
▁התינוק	-13556
▁רשויות	-13557
נרי	-13558
.....	-13559
▁אפשרית	-13560
▁המשותף	-13561
לאל	-13562
אווה	-13563
▁המורה	-13564
▁במאמר	-13565
▁הכריז	-13566
contribut	-13567
▁לבתי	-13568
▁איננה	-13569
▁לאירועים	-13570
יינוס	-13571
▁באורח	-13572
ראשי	-13573
סקסוא	-13574
▁הסד	-13575
▁במשחקים	-13576
מחו	-13577
מלצות	-13578
▁והרי	-13579
▁February	-13580
▁יגאל	-13581
▁המפורס	-13582
אח	-13583
▁בנים	-13584
▁בחור	-13585
▁מידת	-13586
▁כוונת	-13587
▁הכריזה	-13588
▁1989	-13589
▁דיין	-13590
▁לאומית	-13591
▁לרע	-13592
צתי	-13593
kubernetes	-13594
▁חרדים	-13595
▁Canada	-13596
▁Russ	-13597
▁מוטי	-13598
▁Using	-13599
-05	-13600
▁מהט	-13601
.[7]	-13602
▁האמי	-13603
▁ניסיונות	-13604
▁הנגב	-13605
▁רובם	-13606
mental	-13607
▁בדרכים	-13608
ופטת	-13609
▁specified	-13610
לתם	-13611
▁סוני	-13612
▁משאבים	-13613
כנר	-13614
מיון	-13615
▁דעה	-13616
אמריק	-13617
▁בירת	-13618
▁1\	-13619
▁previously	-13620
ופין	-13621
▁קצרים	-13622
allow	-13623
▁User	-13624
ifact	-13625
▁luck	-13626
▁ידיעות	-13627
-04	-13628
▁ובכ	-13629
▁emot	-13630
▁בסיפור	-13631
onym	-13632
▁Cam	-13633
▁שהשי	-13634
לוונטיים	-13635
ציאת	-13636
גוריה	-13637
ופרים	-13638
▁תוקף	-13639
essions	-13640
▁1000	-13641
▁המפגש	-13642
▁במחצית	-13643
▁האופנה	-13644
ווייץ	-13645
ישמיות	-13646
כט	-13647
aset	-13648
▁השגרי	-13649
▁הנושאים	-13650
[6	-13651
▁חינ	-13652
ville	-13653
▁הצגת	-13654
▁tips	-13655
▁לביא	-13656
▁beach	-13657
ownload	-13658
▁מטוסים	-13659
צעים	-13660
▁רחובות	-13661
▁ball	-13662
וזל	-13663
▁נפט	-13664
▁יכ	-13665
▁android	-13666
▁במערכות	-13667
▁Board	-13668
▁הטעם	-13669
▁truly	-13670
▁בדיון	-13671
▁חלום	-13672
▁`/	-13673
▁רלוו	-13674
▁תרצו	-13675
ificate	-13676
▁המוזיק	-13677
Te	-13678
ayer	-13679
system	-13680
▁הובילה	-13681
קאות	-13682
▁Gold	-13683
▁התאמה	-13684
▁explicit	-13685
▁מסגרת	-13686
Info	-13687
▁ביצ	-13688
▁פגישה	-13689
▁shouldn	-13690
▁compared	-13691
▁יאפשר	-13692
▁אמריקאית	-13693
▁החומרים	-13694
▁לתוכנית	-13695
ויה	-13696
▁וילה	-13697
▁למחרת	-13698
'-	-13699
▁(@	-13700
▁תחנות	-13701
▁האשראי	-13702
▁מגיל	-13703
ections	-13704
▁המשותפת	-13705
▁paid	-13706
▁ובנוסף	-13707
iOiJ	-13708
etime	-13709
▁gone	-13710
▁sale	-13711
▁חולון	-13712
▁הספרות	-13713
▁בפרויקט	-13714
uesday	-13715
▁ירקות	-13716
קית	-13717
▁vs	-13718
▁supply	-13719
▁אייר	-13720
▁העשרים	-13721
טחי	-13722
ינת	-13723
▁הוסף	-13724
ums	-13725
▁בניצחון	-13726
oves	-13727
▁נפגעים	-13728
▁ther	-13729
▁(3	-13730
טיבציה	-13731
▁blood	-13732
iers	-13733
▁שפירא	-13734
▁ואנשי	-13735
▁Sing	-13736
▁ensu	-13737
▁וניתן	-13738
▁ליב	-13739
▁מצוה	-13740
▁נפגש	-13741
▁שאח	-13742
▁יוון	-13743
▁האירא	-13744
▁נפלא	-13745
▁תהליכי	-13746
▁nearly	-13747
▁intended	-13748
▁היתרונות	-13749
PE	-13750
מצאים	-13751
▁Change	-13752
▁הפסד	-13753
▁הופכים	-13754
▁Reproduce	-13755
▁אוג	-13756
▁בדק	-13757
▁במציאות	-13758
▁introduce	-13759
uce	-13760
ride	-13761
▁הפו	-13762
▁הרצח	-13763
▁שערי	-13764
eme	-13765
ובץ	-13766
▁specify	-13767
apy	-13768
נדט	-13769
▁הכשרה	-13770
▁לנסוע	-13771
▁Checklist	-13772
venue	-13773
▁מציין	-13774
▁הקרובות	-13775
non	-13776
▁אנה	-13777
▁verify	-13778
ira	-13779
▁מהמק	-13780
▁spread	-13781
icks	-13782
רדית	-13783
▁מקד	-13784
▁smaller	-13785
ייפד	-13786
יתונים	-13787
▁פתוחה	-13788
פאי	-13789
▁כמת	-13790
'),	-13791
▁אהוד	-13792
css	-13793
▁כשיש	-13794
▁sweet	-13795
▁חוקים	-13796
▁consult	-13797
free	-13798
▁בספרו	-13799
▁חיובית	-13800
▁sustain	-13801
Ed	-13802
▁בציבור	-13803
▁מועמדות	-13804
ran	-13805
▁להתקין	-13806
▁האורחים	-13807
▁Did	-13808
▁בכניסה	-13809
▁ST	-13810
▁שלק	-13811
eader	-13812
▁feet	-13813
▁הורדות	-13814
▁מובן	-13815
▁fant	-13816
▁המניות	-13817
▁וייס	-13818
▁באולי	-13819
▁offered	-13820
▁הצפונית	-13821
▁לקור	-13822
▁מוקדמת	-13823
▁נרש	-13824
▁לעיצוב	-13825
▁חיזבאללה	-13826
_\	-13827
▁75	-13828
וזרים	-13829
▁איד	-13830
▁מבח	-13831
▁ברכות	-13832
תיבת	-13833
▁מצה	-13834
▁למים	-13835
▁בעידן	-13836
▁למניעת	-13837
▁אשמח	-13838
▁התנהלות	-13839
ducing	-13840
▁כלכלה	-13841
▁bra	-13842
מייה	-13843
PM	-13844
▁55	-13845
▁fa	-13846
▁שכזה	-13847
▁פינוי	-13848
▁surface	-13849
▁generation	-13850
▁ומר	-13851
וריו	-13852
▁מהמש	-13853
▁לגיטי	-13854
נרת	-13855
▁הענן	-13856
▁מחשבות	-13857
9)	-13858
/200	-13859
▁קנה	-13860
▁וירו	-13861
כנתא	-13862
מספר	-13863
▁סחר	-13864
ניקים	-13865
▁חסרי	-13866
▁פורום	-13867
ircle	-13868
▁correspond	-13869
care	-13870
כבים	-13871
itude	-13872
▁הביאה	-13873
▁בתמורה	-13874
▁הטובות	-13875
▁פותח	-13876
-03	-13877
▁dish	-13878
▁לוחמי	-13879
asy	-13880
▁מרטין	-13881
▁סער	-13882
▁...\	-13883
etry	-13884
▁pressure	-13885
ציגה	-13886
▁mil	-13887
▁ליש	-13888
▁לדיון	-13889
itation	-13890
▁לארגון	-13891
leg	-13892
רטון	-13893
עית	-13894
▁Island	-13895
▁unless	-13896
▁direction	-13897
▁חשבונות	-13898
Core	-13899
cial	-13900
▁הוצא	-13901
הצ	-13902
One	-13903
▁קפ	-13904
perty	-13905
▁becomes	-13906
Open	-13907
סיקים	-13908
▁Life	-13909
▁anymore	-13910
▁נותרו	-13911
ולנד	-13912
▁rev	-13913
▁Word	-13914
▁עקרונות	-13915
-09	-13916
▁decor	-13917
▁סטארטאפים	-13918
▁Ver	-13919
▁Many	-13920
▁sup	-13921
ivation	-13922
▁הממלכה	-13923
▁scale	-13924
PA	-13925
▁מייס	-13926
▁וכיצד	-13927
ributes	-13928
ulations	-13929
▁sources	-13930
▁תחומים	-13931
iliar	-13932
▁הדרכה	-13933
▁capital	-13934
yper	-13935
▁בסיסי	-13936
▁האנושי	-13937
▁stat	-13938
▁domain	-13939
▁המורים	-13940
▁stress	-13941
סטיות	-13942
▁faster	-13943
משה	-13944
▁הקומוני	-13945
להי	-13946
▁decide	-13947
▁records	-13948
אנג	-13949
▁מארק	-13950
fol	-13951
▁הכנה	-13952
▁war	-13953
Index	-13954
גית	-13955
▁גדעון	-13956
▁הבלוג	-13957
/)	-13958
▁עומר	-13959
▁בצוות	-13960
▁Att	-13961
▁que	-13962
▁מוסד	-13963
▁modules	-13964
▁השינויים	-13965
▁מרע	-13966
▁עודד	-13967
▁להצביע	-13968
▁סבי	-13969
▁disapp	-13970
▁מסעדות	-13971
ימים	-13972
▁forget	-13973
pip	-13974
▁סיפרה	-13975
▁שעליו	-13976
▁מבוק	-13977
▁Australia	-13978
▁בפת	-13979
▁ולב	-13980
ודאות	-13981
▁View	-13982
▁אונלי	-13983
וסה	-13984
▁צא	-13985
▁קהילה	-13986
▁6,	-13987
▁שעד	-13988
▁הגורם	-13989
BM	-13990
VER	-13991
▁plus	-13992
▁processing	-13993
▁Str	-13994
Context	-13995
▁והאם	-13996
▁לשאת	-13997
▁Dan	-13998
▁Tom	-13999
▁הבולטים	-14000
ברס	-14001
▁ספא	-14002
▁מובה	-14003
▁ולמרות	-14004
▁פרידמן	-14005
hb	-14006
▁הנכ	-14007
▁שחל	-14008
לילים	-14009
▁משפחתי	-14010
▁PRs	-14011
▁talking	-14012
טיקאי	-14013
▁panel	-14014
▁לחיצה	-14015
▁ישראליות	-14016
▁־	-14017
▁פסוק	-14018
▁ממקום	-14019
▁שהחברה	-14020
▁communication	-14021
▁7,	-14022
▁שנד	-14023
▁נאמן	-14024
▁Super	-14025
▁builds	-14026
▁advert	-14027
▁הרשמית	-14028
▁ארצה	-14029
▁הבירה	-14030
▁השנתי	-14031
▁מוכרת	-14032
זהרה	-14033
▁נוכח	-14034
ncy	-14035
▁הניתוח	-14036
spect	-14037
▁layer	-14038
▁ראיות	-14039
▁שהול	-14040
▁2014,	-14041
▁לתפוס	-14042
ידוע	-14043
וכות	-14044
▁linked	-14045
alax	-14046
ביעו	-14047
▁der	-14048
▁נתפס	-14049
▁המראה	-14050
/15	-14051
מוג	-14052
▁בוגר	-14053
▁payment	-14054
▁בסביבות	-14055
At	-14056
▁ממך	-14057
▁קטי	-14058
▁ובצ	-14059
▁batter	-14060
▁critical	-14061
▁definition	-14062
ius	-14063
▁המתח	-14064
▁מחברת	-14065
▁organizations	-14066
▁לחק	-14067
ulf	-14068
ursday	-14069
under	-14070
▁איום	-14071
standing	-14072
inese	-14073
iques	-14074
▁מתכון	-14075
▁smooth	-14076
**:	-14077
▁מתנג	-14078
▁mother	-14079
▁בקלי	-14080
bo	-14081
▁בהד	-14082
▁מכלל	-14083
▁secure	-14084
▁spring	-14085
▁שוד	-14086
▁אובמה	-14087
▁אולמרט	-14088
▁וניהול	-14089
▁העליונה	-14090
"?	-14091
▁Dec	-14092
▁היפ	-14093
ידך	-14094
שול	-14095
▁random	-14096
▁ובעלי	-14097
▁מורים	-14098
ומיניום	-14099
▁זקוקים	-14100
cpp	-14101
▁ויח	-14102
▁רבע	-14103
▁התחתונה	-14104
▁produced	-14105
נוח	-14106
▁פינת	-14107
ooking	-14108
▁פשי	-14109
מניות	-14110
▁האז	-14111
men	-14112
▁Lear	-14113
▁החייל	-14114
▁ארכיון	-14115
▁מחירון	-14116
▁Internet	-14117
חקו	-14118
▁בהתק	-14119
▁יוקר	-14120
nThese	-14121
▁Studio	-14122
איך	-14123
▁edge	-14124
▁בגמר	-14125
▁בישיבת	-14126
outs	-14127
▁מכה	-14128
רכנים	-14129
▁עצמן	-14130
▁trend	-14131
)`	-14132
▁זית	-14133
▁רפאל	-14134
▁cards	-14135
car	-14136
▁מתנות	-14137
▁התיי	-14138
▁den	-14139
▁כפות	-14140
▁לחכות	-14141
mos	-14142
▁תזונה	-14143
▁challenges	-14144
SW	-14145
80-	-14146
יתור	-14147
▁הירש	-14148
▁בביתו	-14149
לקי	-14150
▁גברי	-14151
▁invalid	-14152
▁מתאימים	-14153
▁```\	-14154
▁השישי	-14155
נטרי	-14156
▁pet	-14157
▁פטר	-14158
/13	-14159
▁זקן	-14160
▁לנשיא	-14161
▁highest	-14162
▁שיעורי	-14163
12]	-14164
▁כלבים	-14165
תיב	-14166
▁adapt	-14167
▁extremely	-14168
().	-14169
ying	-14170
▁ממוצא	-14171
▁חודשיים	-14172
בונים	-14173
ומנות	-14174
▁מבקשים	-14175
▁הזמנה	-14176
▁חידוש	-14177
▁התקבלה	-14178
ij	-14179
▁rent	-14180
▁detailed	-14181
▁ערן	-14182
▁לאופ	-14183
▁therefore	-14184
מזרח	-14185
▁standards	-14186
▁רצוי	-14187
encing	-14188
▁העמותה	-14189
efully	-14190
▁follows	-14191
▁במוזיאון	-14192
▁Azure	-14193
```<	-14194
▁Plan	-14195
▁סיבוב	-14196
▁מעניינים	-14197
ודור	-14198
▁שבכל	-14199
Server	-14200
▁האלופות	-14201
▁העק	-14202
▁סור	-14203
▁הרבי	-14204
▁לחיל	-14205
▁תאורה	-14206
בעל	-14207
▁ולמה	-14208
▁thous	-14209
zen	-14210
▁הלל	-14211
▁סיכום	-14212
▁בהוצאת	-14213
▁ירון	-14214
▁עבורם	-14215
▁SQL	-14216
▁המוני	-14217
itution	-14218
▁החוויה	-14219
De	-14220
▁שכלל	-14221
▁ההחלטות	-14222
▁בינלאומיים	-14223
פקט	-14224
▁Sur	-14225
▁בפרי	-14226
char	-14227
▁nation	-14228
לפי	-14229
▁ביתי	-14230
▁greater	-14231
ובש	-14232
▁מוצאים	-14233
▁שתר	-14234
▁בחום	-14235
▁אהרון	-14236
▁חשיפה	-14237
▁לקרות	-14238
missions	-14239
▁sequ	-14240
▁מאפיינים	-14241
ona	-14242
המש	-14243
indow	-14244
▁תאפשר	-14245
▁מחלוקת	-14246
▁נהדרת	-14247
▁הסלולר	-14248
▁הסרטון	-14249
▁creation	-14250
▁קמפ	-14251
▁לתרום	-14252
▁הבריטים	-14253
▁כמח	-14254
▁הנהג	-14255
▁נהיה	-14256
▁והרשמה	-14257
▁ישן	-14258
▁surpr	-14259
▁הפעלת	-14260
support	-14261
ugg	-14262
▁kitchen	-14263
▁שיכולים	-14264
sql	-14265
▁זיכ	-14266
▁coffee	-14267
▁משטח	-14268
▁מינוי	-14269
▁(/	-14270
דאי	-14271
▁קאר	-14272
platform	-14273
▁sets	-14274
▁בדברי	-14275
▁האפשר	-14276
▁במחנה	-14277
▁damage	-14278
▁הנרי	-14279
▁צופים	-14280
▁הקונגרס	-14281
▁loop	-14282
▁הוועד	-14283
▁המשלחת	-14284
TH	-14285
▁מוזר	-14286
▁בחזית	-14287
▁בדו	-14288
▁מותג	-14289
System	-14290
▁מקומו	-14291
tmp	-14292
▁והמת	-14293
▁Looks	-14294
▁סכנה	-14295
▁dress	-14296
▁לוס	-14297
▁General	-14298
▁נטו	-14299
פקו	-14300
▁sports	-14301
מארטפונים	-14302
▁Educ	-14303
▁charge	-14304
▁יט	-14305
▁רועי	-14306
▁וחברות	-14307
ורכי	-14308
▁בטווח	-14309
▁לתואר	-14310
▁bur	-14311
▁אפס	-14312
▁הרוב	-14313
▁המוביל	-14314
▁בסוג	-14315
yml	-14316
▁במייל	-14317
▁driving	-14318
▁לתא	-14319
▁האוה	-14320
▁הירדן	-14321
▁במשפחה	-14322
▁evening	-14323
▁העו	-14324
▁בודדים	-14325
▁Each	-14326
▁grand	-14327
▁אחרון	-14328
▁הנור	-14329
common	-14330
▁טיולים	-14331
▁נפח	-14332
▁סקוט	-14333
יבה	-14334
▁ערי	-14335
▁בחשד	-14336
▁עבירה	-14337
▁מתחילת	-14338
▁עמודים	-14339
▁לימים	-14340
▁לישון	-14341
▁מתפקיד	-14342
▁Cons	-14343
▁ביס	-14344
▁Form	-14345
▁קלות	-14346
במ	-14347
▁רמ	-14348
▁gra	-14349
▁פתחה	-14350
▁הקמפיין	-14351
טיחה	-14352
▁ובמיוחד	-14353
▁הדירות	-14354
▁הזדמנויות	-14355
▁רגילים	-14356
▁8,	-14357
▁סלול	-14358
▁2.0	-14359
▁ברלין	-14360
▁הפינ	-14361
▁נוחות	-14362
▁לברך	-14363
▁הוריו	-14364
Le	-14365
▁לאסוף	-14366
▁קיבוץ	-14367
נתם	-14368
ruby	-14369
▁פנס	-14370
דיקים	-14371
▁שעושה	-14372
▁בנושאי	-14373
▁Because	-14374
▁מאגר	-14375
▁alone	-14376
▁הטענה	-14377
▁operating	-14378
AB	-14379
\">	-14380
▁bow	-14381
▁CD	-14382
▁אשכנזי	-14383
▁לארו	-14384
▁השוטרים	-14385
▁clin	-14386
▁סביבה	-14387
ago	-14388
▁שעוד	-14389
סטל	-14390
▁15.	-14391
▁asking	-14392
▁עירוני	-14393
▁הסמו	-14394
ampions	-14395
▁ללו	-14396
▁המוט	-14397
ashboard	-14398
״ח	-14399
ודשת	-14400
▁relax	-14401
▁shoot	-14402
▁allowing	-14403
חקה	-14404
Trans	-14405
▁advantage	-14406
▁שנא	-14407
▁התשלום	-14408
▁פנט	-14409
▁מלמד	-14410
▁volunte	-14411
מיי	-14412
▁הירוק	-14413
false	-14414
Be	-14415
▁clar	-14416
▁מחכים	-14417
▁Paul	-14418
▁שואל	-14419
▁הלחימה	-14420
▁רכישה	-14421
▁אדיר	-14422
▁בפק	-14423
▁מהאי	-14424
▁להורג	-14425
▁הוצאה	-14426
▁כרטיסי	-14427
..\	-14428
▁סימ	-14429
▁נחשף	-14430
▁גורמי	-14431
▁מתכוון	-14432
▁אליך	-14433
▁רומן	-14434
וחי	-14435
enses	-14436
▁התיאטרון	-14437
▁הנצ	-14438
▁מקובל	-14439
▁slightly	-14440
▁קליפורניה	-14441
▁ובעל	-14442
▁minimum	-14443
/16	-14444
▁kept	-14445
▁endpoint	-14446
▁experiences	-14447
▁powerful	-14448
▁פנ	-14449
▁פטור	-14450
▁קרנות	-14451
▁מושלמת	-14452
יופיה	-14453
▁בתנאים	-14454
▁שלישית	-14455
▁התקדמות	-14456
▁בכדורגל	-14457
▁schedule	-14458
תע	-14459
▁Prof	-14460
▁השניה	-14461
ובדי	-14462
900	-14463
▁בהור	-14464
▁Hotel	-14465
rad	-14466
▁שהכל	-14467
▁גבע	-14468
▁cold	-14469
▁בשיטת	-14470
▁הארוך	-14471
▁לוג	-14472
מוביץ	-14473
▁מסכת	-14474
▁מצומ	-14475
hat	-14476
rey	-14477
▁לחדש	-14478
allery	-14479
▁אופיר	-14480
▁established	-14481
▁הדואר	-14482
נקט	-14483
▁הועבר	-14484
▁מתברר	-14485
▁Tuesday	-14486
▁המדיניות	-14487
▁באפליקציה	-14488
מערב	-14489
▁fork	-14490
▁הקיסר	-14491
▁המבקרים	-14492
▁conference	-14493
▁מדריד	-14494
▁רצועת	-14495
▁causing	-14496
-08	-14497
▁וכאשר	-14498
▁disease	-14499
▁scope	-14500
▁ניקוי	-14501
▁נטען	-14502
▁syn	-14503
▁mostly	-14504
iverse	-14505
▁Docker	-14506
▁רופאים	-14507
?<	-14508
▁איתך	-14509
▁Govern	-14510
pol	-14511
▁הגביע	-14512
▁הודות	-14513
▁בבניין	-14514
אבלט	-14515
▁2013,	-14516
▁לשלום	-14517
▁ייק	-14518
▁diagn	-14519
▁compile	-14520
וסיית	-14521
▁בשווי	-14522
▁ומשם	-14523
▁efforts	-14524
nthe	-14525
▁יונתן	-14526
▁גרוע	-14527
▁VS	-14528
וריהם	-14529
▁validation	-14530
נבו	-14531
פרייה	-14532
igital	-14533
▁קטע	-14534
▁דרור	-14535
▁נתקל	-14536
CE	-14537
▁Try	-14538
▁מסיי	-14539
▁למטרות	-14540
▁baby	-14541
▁המאוחדת	-14542
Manager	-14543
▁במסלול	-14544
▁ממר	-14545
▁homes	-14546
▁generally	-14547
אטה	-14548
▁דודו	-14549
▁היק	-14550
▁יזם	-14551
▁מחלת	-14552
▁פוסטים	-14553
▁שפורסם	-14554
▁videos	-14555
טיוב	-14556
ixes	-14557
▁המוזיאון	-14558
נחיות	-14559
-3.	-14560
רביעי	-14561
▁excited	-14562
▁הקודמים	-14563
▁advanced	-14564
▁gas	-14565
▁לרצ	-14566
▁עמה	-14567
▁priv	-14568
▁במתק	-14569
▁לפרסום	-14570
▁כור	-14571
▁דרכה	-14572
▁passion	-14573
▁processes	-14574
lc	-14575
▁PHP	-14576
▁בסעיף	-14577
▁science	-14578
▁העץ	-14579
▁Press	-14580
▁Public	-14581
▁split	-14582
▁שאומר	-14583
appy	-14584
▁cop	-14585
▁cru	-14586
▁ונפ	-14587
▁occas	-14588
▁(<	-14589
מושים	-14590
▁שהביא	-14591
▁anyway	-14592
בדת	-14593
ernel	-14594
▁appoint	-14595
נצח	-14596
▁הביק	-14597
▁binary	-14598
▁יציאה	-14599
He	-14600
▁tags	-14601
▁בודד	-14602
▁south	-14603
▁volume	-14604
▁Ev	-14605
▁בכר	-14606
object	-14607
לוב	-14608
▁ובעולם	-14609
▁Institute	-14610
▁מיט	-14611
▁מצטר	-14612
▁הסוללה	-14613
▁מתכת	-14614
▁billion	-14615
▁undefined	-14616
chain	-14617
▁הקרח	-14618
▁הצופים	-14619
▁explore	-14620
▁משפטית	-14621
▁עליון	-14622
▁הרגשתי	-14623
Or	-14624
ולדה	-14625
amily	-14626
ieved	-14627
▁בניה	-14628
▁רגילה	-14629
▁החיל	-14630
▁עיתון	-14631
▁ההזדמנות	-14632
vider	-14633
▁יכלו	-14634
▁65	-14635
▁documents	-14636
ופשה	-14637
טרית	-14638
▁thus	-14639
▁שמעתי	-14640
▁הרה	-14641
▁font	-14642
▁frame	-14643
▁director	-14644
13]	-14645
כיים	-14646
▁occur	-14647
▁נעצרו	-14648
▁הדרכים	-14649
Do	-14650
-02	-14651
פקות	-14652
▁שלד	-14653
▁תפילה	-14654
▁חבריו	-14655
כיות	-14656
תחיל	-14657
▁יוט	-14658
▁הקלא	-14659
▁סגירת	-14660
▁פרחים	-14661
▁שאינן	-14662
▁פוטנציא	-14663
▁מיות	-14664
ומס	-14665
▁הלידה	-14666
={	-14667
▁האקס	-14668
havior	-14669
▁חלוקת	-14670
▁הוציאה	-14671
▁updating	-14672
▁recommended	-14673
▁נגמר	-14674
▁התערוכה	-14675
▁לגוף	-14676
▁לעוד	-14677
▁Cr	-14678
שלנות	-14679
unc	-14680
TV	-14681
▁é	-14682
▁עשיתי	-14683
▁loading	-14684
']	-14685
▁הפצ	-14686
▁תוכנות	-14687
▁לנד	-14688
▁שהט	-14689
LED	-14690
פיס	-14691
▁suppl	-14692
▁ingred	-14693
▁guarant	-14694
?)	-14695
▁כהונתו	-14696
ested	-14697
▁woman	-14698
▁מינו	-14699
nesday	-14700
▁מסוגלים	-14701
▁חיצוניים	-14702
מנם	-14703
קיים	-14704
▁למכשיר	-14705
▁forg	-14706
▁rich	-14707
▁מהתק	-14708
▁עונש	-14709
ינון	-14710
▁נכנסו	-14711
▁וור	-14712
▁לשלטון	-14713
▁המשיכו	-14714
▁אונליין	-14715
▁ההשפעה	-14716
▁44	-14717
iation	-14718
▁ואפשר	-14719
▁פנימה	-14720
▁missed	-14721
▁הפרעות	-14722
▁dim	-14723
▁באיטליה	-14724
▁תהליכים	-14725
ads	-14726
▁1998	-14727
▁אצלי	-14728
▁לפרק	-14729
▁אזורי	-14730
vention	-14731
▁Sl	-14732
HR	-14733
▁pen	-14734
▁גלו	-14735
▁אנלי	-14736
▁secret	-14737
▁גג	-14738
▁הבקשה	-14739
▁unable	-14740
▁identify	-14741
▁seed	-14742
stract	-14743
KE	-14744
▁עליי	-14745
▁מתוכם	-14746
▁הדגיש	-14747
▁אוסטריה	-14748
ota	-14749
▁rates	-14750
▁נעימה	-14751
▁שקר	-14752
▁בפארק	-14753
▁הכיפורים	-14754
▁18.	-14755
▁Love	-14756
▁בכלא	-14757
▁עצים	-14758
▁forms	-14759
▁נוסדה	-14760
-07	-14761
▁מסמך	-14762
▁הדרומית	-14763
ds	-14764
▁miles	-14765
▁born	-14766
▁knew	-14767
▁התנ	-14768
▁Bay	-14769
▁2020,	-14770
▁north	-14771
רינה	-14772
▁לוקחים	-14773
cat	-14774
buntu	-14775
▁raised	-14776
cons	-14777
▁עיי	-14778
▁&&	-14779
▁MS	-14780
▁Char	-14781
וליטיקה	-14782
▁מאוניברסיטת	-14783
shop	-14784
ובדת	-14785
▁עמק	-14786
ורגיה	-14787
כויים	-14788
▁החלפת	-14789
▁המקומיות	-14790
nSee	-14791
oyal	-14792
icate	-14793
▁פיטר	-14794
▁הבנות	-14795
▁express	-14796
[5].	-14797
▁בשב	-14798
▁לנשיאות	-14799
▁מגיב	-14800
▁ואולם	-14801
2%	-14802
ילוץ	-14803
▁ההוא	-14804
▁מלאכותית	-14805
כונן	-14806
▁שיפ	-14807
▁Phot	-14808
▁afford	-14809
▁הרק	-14810
▁סמך	-14811
▁2012,	-14812
otal	-14813
▁פתיחה	-14814
▁תומאס	-14815
▁אוטונו	-14816
▁טיפולים	-14817
▁syntax	-14818
▁מיידית	-14819
ויזיה	-14820
▁Hist	-14821
▁למשפחת	-14822
▁suggested	-14823
▁(3)	-14824
מולה	-14825
▁רפי	-14826
▁אמית	-14827
▁סירב	-14828
gorith	-14829
▁מוכנה	-14830
▁להתקדם	-14831
utils	-14832
▁עמדו	-14833
▁שפיר	-14834
▁craft	-14835
▁הפארק	-14836
וקראינה	-14837
86_	-14838
▁Wi	-14839
▁התחנה	-14840
▁העלילה	-14841
▁putting	-14842
▁אוקראינה	-14843
רער	-14844
▁Ref	-14845
count	-14846
Bl	-14847
▁לשוב	-14848
▁Net	-14849
▁שגי	-14850
▁אנרג	-14851
▁איסוף	-14852
▁French	-14853
▁placed	-14854
▁disabled	-14855
▁Foundation	-14856
▁39	-14857
▁הפרשה	-14858
▁כשבוע	-14859
▁לעצמם	-14860
▁דהיינו	-14861
▁הדרומי	-14862
▁מתקיים	-14863
להלן	-14864
▁למחשב	-14865
▁משימה	-14866
▁תפריט	-14867
▁schedul	-14868
▁הרופאים	-14869
▁העביר	-14870
▁הונגריה	-14871
▁נכנסים	-14872
▁מבוגרים	-14873
▁פירו	-14874
ibraries	-14875
▁performed	-14876
▁למפקד	-14877
▁comfortable	-14878
▁demo	-14879
▁בפרשת	-14880
שתם	-14881
UR	-14882
חיות	-14883
▁שהו	-14884
SQL	-14885
▁וחש	-14886
▁winter	-14887
▁detect	-14888
בחון	-14889
▁מינה	-14890
▁עובדה	-14891
▁Ret	-14892
▁mail	-14893
▁בקיבוץ	-14894
שתות	-14895
▁כדורסל	-14896
▁Thursday	-14897
▁וזכה	-14898
▁ומנה	-14899
▁זכאי	-14900
▁stable	-14901
▁Indian	-14902
▁בהז	-14903
▁מריה	-14904
▁היותר	-14905
▁לרפואה	-14906
▁1944	-14907
▁לעצמה	-14908
וגרפ	-14909
▁ארט	-14910
▁ולבסוף	-14911
▁כוונה	-14912
▁הרפובליק	-14913
▁11:	-14914
alaxy	-14915
lines	-14916
▁delay	-14917
▁מצבים	-14918
▁vac	-14919
▁לצה	-14920
▁presented	-14921
▁`<	-14922
▁דורון	-14923
▁שרוצים	-14924
-06	-14925
▁הגליל	-14926
▁המית	-14927
▁שמב	-14928
▁wear	-14929
▁לואיס	-14930
▁minute	-14931
▁depending	-14932
▁Rob	-14933
Query	-14934
▁suggestions	-14935
לימים	-14936
▁בפוסט	-14937
▁מדהימה	-14938
סיבת	-14939
▁במחלוקת	-14940
ידון	-14941
▁לממש	-14942
▁המרכזיים	-14943
)<	-14944
▁חולי	-14945
▁נפשי	-14946
▁הנוסעים	-14947
▁ושומרון	-14948
▁protection	-14949
▁שבית	-14950
▁המופע	-14951
וללת	-14952
▁עוברת	-14953
▁ut	-14954
▁ברוח	-14955
▁עקיבא	-14956
▁1.5	-14957
ליקון	-14958
נסיים	-14959
▁והכי	-14960
▁עמוקה	-14961
▁תופעה	-14962
▁האמיתית	-14963
User	-14964
▁:-	-14965
▁600	-14966
▁emb	-14967
allet	-14968
▁קלים	-14969
iber	-14970
▁יוצאי	-14971
▁ריכוז	-14972
▁economic	-14973
foo	-14974
west	-14975
▁ואן	-14976
▁scient	-14977
▁Content	-14978
NN	-14979
מונית	-14980
undred	-14981
▁פלטפורמת	-14982
▁יונה	-14983
▁לשכת	-14984
▁1980	-14985
▁חזרו	-14986
חקיר	-14987
יקרוסופט	-14988
▁להסכם	-14989
ervation	-14990
uman	-14991
▁holiday	-14992
▁ההסתדרות	-14993
▁10:	-14994
ראייה	-14995
cThe	-14996
▁כרא	-14997
▁הסוף	-14998
▁לינק	-14999
▁מסחרי	-15000
▁בשבועות	-15001
▁נותנת	-15002
▁spirit	-15003
▁מעצב	-15004
▁president	-15005
▁Tex	-15006
▁הקדושה	-15007
▁Best	-15008
▁artist	-15009
▁בתמונה	-15010
▁שיאפשר	-15011
gt	-15012
▁gather	-15013
▁היסטורי	-15014
▁מהצד	-15015
▁עליית	-15016
▁נהיגה	-15017
▁בקהילה	-15018
15.	-15019
אדם	-15020
▁המסע	-15021
▁whose	-15022
▁Community	-15023
ולוגיים	-15024
▁רכוש	-15025
▁בטבע	-15026
▁ההלכה	-15027
feature	-15028
▁prepar	-15029
היא	-15030
▁שיצ	-15031
endar	-15032
inger	-15033
וזניות	-15034
▁River	-15035
▁כדוגמת	-15036
▁voice	-15037
▁קריאת	-15038
▁לייצור	-15039
How	-15040
roud	-15041
▁score	-15042
▁לצרכים	-15043
תא	-15044
▁שדי	-15045
orter	-15046
▁busy	-15047
▁הלחץ	-15048
▁הודעת	-15049
▁37	-15050
▁1990	-15051
▁ברשימה	-15052
▁פתוחים	-15053
▁עמנו	-15054
▁התייחסות	-15055
▁וממ	-15056
▁חשד	-15057
▁לעם	-15058
▁Main	-15059
▁מלאים	-15060
▁Bank	-15061
▁נועם	-15062
▁כזכור	-15063
well	-15064
▁פרסומות	-15065
uated	-15066
▁מהווים	-15067
▁נלק	-15068
▁נשימה	-15069
▁גשר	-15070
בישים	-15071
▁הראל	-15072
▁נפצעו	-15073
▁ליותר	-15074
▁פרסמה	-15075
▁בחינוך	-15076
▁שמישהו	-15077
פריד	-15078
▁לבניית	-15079
▁לחינוך	-15080
▁דינו	-15081
▁הדיווחים	-15082
16.	-15083
▁Tri	-15084
▁מוא	-15085
▁המחאה	-15086
ki	-15087
while	-15088
▁Company	-15089
▁Free	-15090
▁fashion	-15091
▁studies	-15092
▁accident	-15093
▁combination	-15094
פשו	-15095
זמות	-15096
▁virtual	-15097
יתוך	-15098
▁advis	-15099
יסוק	-15100
▁במשחה	-15101
▁supporting	-15102
▁דתי	-15103
▁און	-15104
2017	-15105
▁chem	-15106
▁המשמש	-15107
▁רעה	-15108
▁ליין	-15109
▁היתרון	-15110
▁הקריאה	-15111
▁displayed	-15112
pkg	-15113
בדיל	-15114
▁ולפ	-15115
▁טכנולוגית	-15116
▁דיל	-15117
agger	-15118
▁ואיל	-15119
▁בפיגוע	-15120
ename	-15121
▁שורות	-15122
▁Star	-15123
▁מסוכן	-15124
▁טופ	-15125
▁feat	-15126
▁מקיף	-15127
Model	-15128
▁שוויון	-15129
▁friendly	-15130
▁workflow	-15131
ולמות	-15132
▁איכותיים	-15133
▁reply	-15134
▁קיבלתי	-15135
▁extract	-15136
▁מעצר	-15137
▁upgrad	-15138
▁Vol	-15139
▁בחייו	-15140
▁ג׳	-15141
Bu	-15142
▁רמה	-15143
phere	-15144
▁בכביש	-15145
▁compar	-15146
▁בחלל	-15147
▁נגר	-15148
▁pair	-15149
connect	-15150
^^^^	-15151
▁משטר	-15152
נסק	-15153
Ijoi	-15154
רחבה	-15155
▁refresh	-15156
▁מעורבים	-15157
▁specifically	-15158
▁סקי	-15159
▁אתגר	-15160
▁שמור	-15161
▁היהדות	-15162
▁פייר	-15163
▁תקיפה	-15164
aughter	-15165
▁incred	-15166
▁mission	-15167
גרסי	-15168
▁ואשר	-15169
▁הטיסה	-15170
▁manual	-15171
64-	-15172
▁לצמצם	-15173
▁שעברו	-15174
▁academ	-15175
▁גולשים	-15176
▁האדרי	-15177
▁הגברים	-15178
▁affected	-15179
oded	-15180
▁בנפרד	-15181
▁בבו	-15182
▁ורג	-15183
נום	-15184
nNot	-15185
och	-15186
גיעות	-15187
▁לערוץ	-15188
▁האמונה	-15189
▁להתמקד	-15190
▁Pull	-15191
▁לוקה	-15192
פסות	-15193
שיפת	-15194
▁הקיר	-15195
▁הסכום	-15196
▁Pay	-15197
▁הטכני	-15198
▁הידיעות	-15199
vb	-15200
equ	-15201
▁esc	-15202
וסיות	-15203
שימים	-15204
▁שומן	-15205
▁Elect	-15206
▁יישום	-15207
▁sending	-15208
▁communities	-15209
וזרת	-15210
▁זוגיות	-15211
▁ברצלונה	-15212
30\	-15213
שיטים	-15214
▁במחשב	-15215
▁במחירים	-15216
:2	-15217
בטחת	-15218
▁bul	-15219
גוריון	-15220
1%	-15221
▁וחד	-15222
▁תופעות	-15223
4/	-15224
max	-15225
▁retail	-15226
▁אורלי	-15227
▁חמורה	-15228
▁schema	-15229
גנה	-15230
מידע	-15231
▁פלילי	-15232
▁חניה	-15233
▁לפרוץ	-15234
▁ראייה	-15235
illage	-15236
▁bound	-15237
▁Director	-15238
Hel	-15239
nUn	-15240
▁British	-15241
▁teaching	-15242
▁incorrect	-15243
▁align	-15244
▁לפניו	-15245
רגם	-15246
▁מוחלטת	-15247
▁political	-15248
Map	-15249
Rep	-15250
▁הסכמה	-15251
▁maintenance	-15252
▁מסעדה	-15253
▁String	-15254
▁מרגישה	-15255
_0,	-15256
nSh	-15257
מוט	-15258
סטאר	-15259
▁Development	-15260
▁valu	-15261
▁לתאר	-15262
▁הסופי	-15263
▁practices	-15264
▁הסוכנות	-15265
13.	-15266
דני	-15267
▁בחצר	-15268
▁בממשלה	-15269
esterday	-15270
▁מסוימות	-15271
עצ	-15272
▁ותיק	-15273
▁סלי	-15274
▁עונ	-15275
Image	-15276
▁נבדק	-15277
▁שבאמת	-15278
Sub	-15279
▁אחים	-15280
▁attached	-15281
▁removing	-15282
▁חזקים	-15283
▁נאס	-15284
▁מיקי	-15285
▁letter	-15286
▁Jack	-15287
▁למדה	-15288
▁central	-15289
▁השקט	-15290
apache	-15291
ומביה	-15292
▁השלט	-15293
▁ספינות	-15294
▁בהדרגה	-15295
bles	-15296
▁במאבק	-15297
▁לרשימת	-15298
▁עסקית	-15299
ואלה	-15300
▁ההפר	-15301
▁2011,	-15302
▁Science	-15303
HD	-15304
.[8]	-15305
▁posts	-15306
▁התחום	-15307
▁קצה	-15308
▁מדברי	-15309
▁ובתי	-15310
▁הודיעו	-15311
rees	-15312
▁800	-15313
▁אישרה	-15314
▁נערכו	-15315
▁להבחין	-15316
Screenshot	-15317
▁במקומו	-15318
▁compatible	-15319
▁הפגיעה	-15320
▁ומקצוע	-15321
▁balance	-15322
פקים	-15323
▁אחראית	-15324
▁שישראל	-15325
▁developer	-15326
framework	-15327
ליפו	-15328
▁har	-15329
▁Call	-15330
▁בגרסה	-15331
BO	-15332
▁השיב	-15333
▁חלקה	-15334
▁בטעות	-15335
▁יעילה	-15336
▁שוכ	-15337
▁הקלה	-15338
▁ופרס	-15339
▁פריטים	-15340
צלמות	-15341
04.	-15342
▁נסת	-15343
▁הרים	-15344
זבת	-15345
prot	-15346
▁restart	-15347
פסיד	-15348
▁favour	-15349
▁חסרת	-15350
▁שנכנס	-15351
▁שנועד	-15352
▁במו	-15353
▁wine	-15354
▁להרוג	-15355
▁py	-15356
▁שבד	-15357
▁מרגש	-15358
ובוסים	-15359
▁filled	-15360
▁משרדים	-15361
▁עצמאות	-15362
▁competition	-15363
embly	-15364
▁באס	-15365
▁חלקו	-15366
▁לגשת	-15367
ivil	-15368
▁מחמ	-15369
▁בידו	-15370
▁לשחקן	-15371
▁![	-15372
▁האפשרויות	-15373
ission	-15374
components	-15375
▁establish	-15376
▁מושב	-15377
▁White	-15378
▁learned	-15379
▁לתקוף	-15380
▁צרפתי	-15381
▁Blue	-15382
▁הקלי	-15383
▁remains	-15384
▁התמודדות	-15385
▁20.	-15386
דושים	-15387
▁tables	-15388
▁החרדים	-15389
איפה	-15390
▁ערבית	-15391
▁approx	-15392
▁Like	-15393
▁Show	-15394
▁לדחות	-15395
5.0	-15396
▁נובע	-15397
Nr	-15398
ATE	-15399
ena	-15400
ening	-15401
Google	-15402
▁הסתיים	-15403
▁לשאלה	-15404
▁Manager	-15405
[7	-15406
▁סטרי	-15407
▁המסור	-15408
include	-15409
הכ	-15410
▁והמע	-15411
ildren	-15412
▁bath	-15413
▁(17	-15414
▁seven	-15415
fficient	-15416
לקס	-15417
ודנט	-15418
▁17.	-15419
ufffd	-15420
▁1994	-15421
▁המטבח	-15422
▁מלכות	-15423
Windows	-15424
ano	-15425
▁המבוסס	-15426
▁מחזיקה	-15427
▁משפטים	-15428
Comm	-15429
▁Key	-15430
Sw	-15431
אנס	-15432
▁השקת	-15433
▁focused	-15434
2016	-15435
▁למסע	-15436
וסיה	-15437
front	-15438
▁ראשונים	-15439
▁אלחו	-15440
▁leader	-15441
▁באיזור	-15442
▁מטבע	-15443
▁אגודת	-15444
▁נוש	-15445
▁פיקוח	-15446
▁התחילו	-15447
▁בטוויטר	-15448
▁delivery	-15449
berg	-15450
▁solid	-15451
▁ארבעת	-15452
▁יחדיו	-15453
▁עוסקת	-15454
▁השופטת	-15455
אוכל	-15456
מהות	-15457
friend	-15458
itz	-15459
▁בהודעה	-15460
▁React	-15461
▁מבינה	-15462
▁וצריך	-15463
ashington	-15464
|\	-15465
קרקע	-15466
▁וגו	-15467
▁דויד	-15468
▁המנכ	-15469
▁ובכן	-15470
▁הרחוב	-15471
▁שפורס	-15472
▁Custom	-15473
ומכים	-15474
▁הרגיש	-15475
▁יוחנן	-15476
▁ללחוץ	-15477
▁תלויה	-15478
טיפול	-15479
▁מזהה	-15480
▁הבינו	-15481
▁facilities	-15482
sim	-15483
▁הנכס	-15484
יוט	-15485
▁לאישה	-15486
▁קומות	-15487
▁דייוויד	-15488
▁למציאות	-15489
▁לאנשי	-15490
▁תרומות	-15491
▁הודה	-15492
▁מרן	-15493
בולות	-15494
▁End	-15495
chmark	-15496
▁רכבים	-15497
HA	-15498
▁reviews	-15499
נטיים	-15500
▁מצבו	-15501
▁station	-15502
▁המודעות	-15503
חזיק	-15504
פורה	-15505
יומים	-15506
▁השתמשו	-15507
▁התובעת	-15508
Thread	-15509
nconst	-15510
▁המערב	-15511
ייג	-15512
▁החוב	-15513
▁שידור	-15514
▁suggestion	-15515
mt	-15516
▁טעים	-15517
▁ציינו	-15518
▁תנועות	-15519
▁jump	-15520
▁השיקה	-15521
▁Information	-15522
הארץ	-15523
פיפות	-15524
akers	-15525
▁בהקדם	-15526
▁approved	-15527
▁bag	-15528
▁ang	-15529
▁בלש	-15530
▁ביצועים	-15531
▁audience	-15532
עק	-15533
ERR	-15534
▁לעדכן	-15535
▁cat	-15536
admin	-15537
▁להזכיר	-15538
alm	-15539
▁מבקשת	-15540
כניים	-15541
▁הרווח	-15542
debug	-15543
▁ימשיך	-15544
מחות	-15545
ytics	-15546
▁electric	-15547
▁Product	-15548
▁tutorial	-15549
ובא	-15550
▁והור	-15551
טואציה	-15552
▁entertain	-15553
exp	-15554
▁השינה	-15555
▁restaurant	-15556
▁ליק	-15557
going	-15558
▁בשיא	-15559
▁לחקר	-15560
▁boxes	-15561
▁באולם	-15562
טייל	-15563
▁הבור	-15564
▁התקבל	-15565
▁recip	-15566
[0	-15567
▁Sil	-15568
▁audio	-15569
▁cancer	-15570
▁קשורים	-15571
▁consistent	-15572
dr	-15573
▁רוט	-15574
▁המיועד	-15575
▁biggest	-15576
▁חפץ	-15577
▁נסע	-15578
▁tend	-15579
▁בולט	-15580
כרון	-15581
▁אקו	-15582
▁אסתר	-15583
▁ניצב	-15584
▁duplicate	-15585
▁poor	-15586
▁coord	-15587
▁גופים	-15588
▁האישיים	-15589
ליפי	-15590
20.	-15591
ecut	-15592
▁התחז	-15593
▁גדי	-15594
▁define	-15595
▁לגברים	-15596
MI	-15597
▁כמא	-15598
▁Pass	-15599
▁בחסות	-15600
jpg	-15601
▁login	-15602
▁לפגוש	-15603
▁התכנים	-15604
אחרי	-15605
▁שחש	-15606
▁כמש	-15607
▁Wednesday	-15608
▁1945	-15609
▁1988	-15610
גויות	-15611
טופ	-15612
▁כצ	-15613
▁conv	-15614
▁צמיחה	-15615
▁familiar	-15616
▁convert	-15617
▁Response	-15618
cI	-15619
▁Fore	-15620
▁פיתחה	-15621
▁בברלין	-15622
outer	-15623
▁Mount	-15624
./	-15625
▁ן	-15626
למי	-15627
aybe	-15628
נדסה	-15629
▁ואחת	-15630
▁כוכבי	-15631
▁מרוצים	-15632
▁הדמוקרטית	-15633
▁prompt	-15634
TER	-15635
icker	-15636
▁קנדי	-15637
▁eight	-15638
▁לעומק	-15639
null	-15640
▁לנע	-15641
▁בעמדת	-15642
▁ללקוח	-15643
▁איציק	-15644
▁heavy	-15645
▁במיל	-15646
▁מורשת	-15647
▁סדרות	-15648
lar	-15649
???	-15650
▁הגיוני	-15651
▁נמר	-15652
▁החרי	-15653
▁היפה	-15654
▁תרומה	-15655
▁1970	-15656
▁חלון	-15657
▁רציני	-15658
מלט	-15659
rian	-15660
▁Mart	-15661
גבניות	-15662
MB	-15663
▁הדתי	-15664
▁לפרי	-15665
▁merging	-15666
▁מיצ	-15667
▁surv	-15668
▁אירוח	-15669
NBA	-15670
רגו	-15671
▁קשיים	-15672
▁workaround	-15673
ומון	-15674
▁Rich	-15675
▁ואלו	-15676
▁מוסר	-15677
▁הסיכוי	-15678
VD	-15679
From	-15680
▁הציוני	-15681
▁optional	-15682
ANG	-15683
▁ככ	-15684
```"	-15685
▁תשי	-15686
▁נוסח	-15687
▁ואומר	-15688
יועץ	-15689
icken	-15690
▁טוענת	-15691
▁העבירה	-15692
חתן	-15693
▁Mobile	-15694
פתה	-15695
מותו	-15696
▁בספרד	-15697
▁לטובה	-15698
▁fans	-15699
▁לכבוש	-15700
▁נכנסה	-15701
▁אזורים	-15702
▁מפח	-15703
▁ענת	-15704
std	-15705
▁מתכננת	-15706
▁spaces	-15707
AI	-15708
Gl	-15709
▁wife	-15710
▁לאותו	-15711
▁somewhere	-15712
elog	-15713
▁advent	-15714
▁Chinese	-15715
▁AP	-15716
▁וירטוא	-15717
▁visible	-15718
CO	-15719
אותו	-15720
צויים	-15721
▁לברוח	-15722
▁המפורסם	-15723
ellig	-15724
▁בנמל	-15725
▁טבעית	-15726
ולק	-15727
▁beg	-15728
▁opinion	-15729
▁שהז	-15730
▁בלוח	-15731
▁בראון	-15732
דיבות	-15733
▁לוחמים	-15734
utely	-15735
▁והפך	-15736
5-	-15737
▁רן	-15738
target	-15739
uzz	-15740
חררו	-15741
▁rid	-15742
▁חובות	-15743
8-	-15744
actory	-15745
▁snow	-15746
▁ובאי	-15747
▁האסלא	-15748
6-	-15749
ליכה	-15750
▁לאחור	-15751
▁cab	-15752
▁הפתוח	-15753
▁איבד	-15754
▁מוסיקה	-15755
▁פנימית	-15756
700	-15757
rid	-15758
▁workers	-15759
שרדות	-15760
▁bright	-15761
▁Ventures	-15762
issuecomment	-15763
nnpm	-15764
פעלת	-15765
▁סמים	-15766
▁49	-15767
▁ונד	-15768
▁independent	-15769
לקו	-15770
▁flu	-15771
▁נהנה	-15772
▁שנשא	-15773
▁בראשון	-15774
▁seg	-15775
ומדיה	-15776
▁json	-15777
▁אליי	-15778
▁מוסקבה	-15779
תימה	-15780
▁exit	-15781
▁סניף	-15782
▁לעברית	-15783
▁ton	-15784
ato	-15785
▁רונן	-15786
Module	-15787
▁הדף	-15788
▁יבש	-15789
▁scene	-15790
▁בשלושה	-15791
▁הביקור	-15792
▁האנגלית	-15793
▁מוגבלת	-15794
ארה	-15795
▁Media	-15796
▁חוויית	-15797
anta	-15798
▁AD	-15799
לכות	-15800
▁Church	-15801
▁Install	-15802
▁modified	-15803
▁נתנו	-15804
נראה	-15805
▁וכול	-15806
▁exclus	-15807
▁הסלול	-15808
▁מטבעות	-15809
▁יעילות	-15810
▁ציבוריים	-15811
fin	-15812
▁ייצוג	-15813
▁אומנות	-15814
▁הכתוב	-15815
▁מתמיד	-15816
▁migr	-15817
▁הכיבוש	-15818
▁leaving	-15819
▁ראיה	-15820
▁James	-15821
▁נכונות	-15822
▁0;	-15823
▁סה	-15824
וקיו	-15825
▁גשם	-15826
asure	-15827
שלכות	-15828
▁חזה	-15829
▁החנות	-15830
▁styles	-15831
▁anywhere	-15832
▁ללב	-15833
▁בערים	-15834
▁טיפולי	-15835
oin	-15836
דוף	-15837
למשל	-15838
▁קליין	-15839
▁למשוך	-15840
▁השביעי	-15841
▁wedding	-15842
px	-15843
Ext	-15844
▁ישו	-15845
▁התחלתי	-15846
)](	-15847
cache	-15848
▁והרבה	-15849
▁הקברות	-15850
דווח	-15851
▁יעבור	-15852
▁אלמנטים	-15853
▁arguments	-15854
▁locations	-15855
▁אדר	-15856
תיחות	-15857
▁השיא	-15858
output	-15859
▁בזק	-15860
▁sync	-15861
▁פשוטים	-15862
▁רומא	-15863
▁שהות	-15864
▁ברירה	-15865
▁mut	-15866
וניינים	-15867
▁האחרות	-15868
▁maximum	-15869
גלות	-15870
דשות	-15871
▁גזר	-15872
▁וורד	-15873
▁פוגע	-15874
▁תגיע	-15875
עיפים	-15876
▁באותם	-15877
▁הוספת	-15878
▁עסקיים	-15879
:11	-15880
כילה	-15881
▁לאישור	-15882
▁לור	-15883
▁ליר	-15884
iency	-15885
▁נוז	-15886
דווקא	-15887
▁Book	-15888
▁האירופית	-15889
וצרות	-15890
▁יועץ	-15891
▁מניח	-15892
▁בנבחרת	-15893
▁הבנקים	-15894
▁גנרל	-15895
▁ובמקום	-15896
▁fan	-15897
uit	-15898
▁כשע	-15899
▁רובו	-15900
▁hus	-15901
▁במעמד	-15902
▁improved	-15903
מכה	-15904
רצליה	-15905
▁לווי	-15906
▁מיטב	-15907
▁סופי	-15908
▁פרנס	-15909
רכם	-15910
▁vision	-15911
▁בשלבים	-15912
▁אדוארד	-15913
▁creates	-15914
▁מקומיות	-15915
▁Cy	-15916
▁gift	-15917
▁מהמקום	-15918
ורט	-15919
▁{{	-15920
▁סווי	-15921
▁במדבר	-15922
▁באשדוד	-15923
OK	-15924
nel	-15925
▁כרמל	-15926
▁capacity	-15927
).<	-15928
roy	-15929
▁42	-15930
▁ספו	-15931
▁קבצים	-15932
rl	-15933
▁הפסקה	-15934
________________	-15935
▁./	-15936
▁אובדן	-15937
▁תפיסת	-15938
חיים	-15939
▁מספרי	-15940
▁estate	-15941
▁סרטונים	-15942
▁rare	-15943
▁ורב	-15944
▁סמית	-15945
3%	-15946
▁הזמנות	-15947
▁encounter	-15948
▁Saf	-15949
annels	-15950
▁נולדו	-15951
▁גדוד	-15952
▁Report	-15953
▁Capital	-15954
▁המרו	-15955
▁שחשוב	-15956
eration	-15957
community	-15958
▁שלג	-15959
▁עומק	-15960
▁המועמדים	-15961
ניסו	-15962
▁טיי	-15963
▁הנפט	-15964
▁רוזן	-15965
▁units	-15966
▁האזורית	-15967
▁האיראני	-15968
מחי	-15969
פשי	-15970
נדבות	-15971
▁קולק	-15972
▁בשלוש	-15973
▁שכדאי	-15974
סח	-15975
scape	-15976
▁שנוצר	-15977
▁layout	-15978
רתם	-15979
ady	-15980
▁שופטים	-15981
אותה	-15982
▁fetch	-15983
▁היכולות	-15984
▁שהור	-15985
▁Ann	-15986
▁עיו	-15987
Build	-15988
▁Ob	-15989
צוגה	-15990
דהות	-15991
פיפי	-15992
event	-15993
▁guests	-15994
▁בישיבה	-15995
▁פיזי	-15996
▁מסיבת	-15997
▁threat	-15998
▁לבת	-15999
▁מינ	-16000
גוריתם	-16001
▁פילוס	-16002
Load	-16003
▁ניה	-16004
▁עדויות	-16005
▁הפוטנציאל	-16006
▁כבל	-16007
reh	-16008
▁cars	-16009
author	-16010
▁ללימודי	-16011
ביאה	-16012
▁Lake	-16013
▁worry	-16014
flutter	-16015
מליץ	-16016
▁Year	-16017
▁clearly	-16018
כליות	-16019
▁הצו	-16020
/18	-16021
▁הפלסטיני	-16022
▁contribute	-16023
▁Mal	-16024
▁famous	-16025
▁category	-16026
▁בשאר	-16027
▁possibly	-16028
▁החולה	-16029
▁ידועים	-16030
▁השכונה	-16031
▁counter	-16032
▁CSS	-16033
▁וקר	-16034
▁willing	-16035
arts	-16036
MT	-16037
▁שיג	-16038
▁prepared	-16039
▁הסטארטאפים	-16040
▁והפר	-16041
▁הרשמה	-16042
▁loaded	-16043
▁doll	-16044
▁מידות	-16045
▁מודעים	-16046
▁artists	-16047
CS	-16048
▁שתיים	-16049
14.	-16050
▁בגדר	-16051
▁דירת	-16052
תל	-16053
כינה	-16054
▁נמנ	-16055
▁אצלו	-16056
▁להטמיע	-16057
טלי	-16058
פסי	-16059
▁יופ	-16060
▁none	-16061
▁solved	-16062
▁גופו	-16063
ארלס	-16064
▁זרה	-16065
▁ניי	-16066
sites	-16067
גורית	-16068
▁מביאה	-16069
▁exercise	-16070
▁לסל	-16071
▁הרדיו	-16072
▁plants	-16073
▁Mor	-16074
▁כותבים	-16075
▁הרווחה	-16076
סיים	-16077
Source	-16078
▁באילת	-16079
▁סימני	-16080
▁plenty	-16081
▁sand	-16082
▁בשקט	-16083
▁שתת	-16084
▁continues	-16085
והים	-16086
▁מרכ	-16087
▁המרד	-16088
▁הנסיך	-16089
▁הגנת	-16090
6%	-16091
▁הכוללים	-16092
▁Soft	-16093
▁אכפת	-16094
▁peace	-16095
▁וושינגטון	-16096
▁motor	-16097
▁דורשת	-16098
▁העצמי	-16099
▁חלומות	-16100
▁תשכ	-16101
▁צוותי	-16102
▁hundred	-16103
nZ	-16104
▁נכס	-16105
▁cash	-16106
▁במוק	-16107
נקת	-16108
▁נוי	-16109
▁desp	-16110
▁instru	-16111
▁רעננה	-16112
▁פרד	-16113
▁להשיב	-16114
▁Describe	-16115
▁flat	-16116
▁הערה	-16117
▁הרצאה	-16118
▁הוסיפה	-16119
▁ועיצוב	-16120
▁כריסטי	-16121
▁מבקרים	-16122
itionally	-16123
▁קודש	-16124
▁סופית	-16125
IO	-16126
irmed	-16127
parent	-16128
▁בנסיבות	-16129
-300	-16130
▁discussed	-16131
▁תשעה	-16132
▁במבנה	-16133
ented	-16134
▁leads	-16135
▁החקלאות	-16136
EE	-16137
ווך	-16138
▁abs	-16139
▁מופיעה	-16140
▁מספקים	-16141
▁ניקיון	-16142
▁cit	-16143
achine	-16144
▁מצוינת	-16145
▁Next	-16146
▁זילנד	-16147
▁quarter	-16148
▁בקריירה	-16149
▁החודשים	-16150
▁בך	-16151
▁THE	-16152
Item	-16153
▁לחברי	-16154
▁2018.	-16155
▁זמינה	-16156
▁קבועה	-16157
▁התקיימה	-16158
▁זקוק	-16159
▁מרחק	-16160
▁המצרי	-16161
▁מהנדס	-16162
▁מתקדמת	-16163
▁סוס	-16164
vely	-16165
▁1967	-16166
▁הגיש	-16167
▁Which	-16168
▁הספינה	-16169
▁לקהילה	-16170
▁בטורניר	-16171
▁האוס	-16172
▁Creat	-16173
▁blocks	-16174
▁האוסטר	-16175
▁50%	-16176
7684\	-16177
ציאים	-16178
טרפות	-16179
▁ליהודים	-16180
▁וכיו	-16181
▁לאיש	-16182
▁צודק	-16183
▁קומה	-16184
▁שחקנית	-16185
omb	-16186
▁בהנ	-16187
▁נובל	-16188
▁brings	-16189
▁להסתכל	-16190
הט	-16191
▁הפט	-16192
ביאים	-16193
▁המסר	-16194
▁חשפה	-16195
▁chain	-16196
▁הרצוג	-16197
▁עכו	-16198
▁המדה	-16199
▁deleted	-16200
▁supposed	-16201
▁לנוכח	-16202
▁מדרום	-16203
▁occurre	-16204
den	-16205
▁Bas	-16206
loader	-16207
▁חוקית	-16208
▁פוליטיים	-16209
▁לקה	-16210
▁Only	-16211
▁Court	-16212
▁מחייב	-16213
▁המערכה	-16214
בועים	-16215
▁developers	-16216
▁תיש	-16217
▁Michael	-16218
gate	-16219
▁איכ	-16220
▁בחינת	-16221
▁אופציה	-16222
Call	-16223
gers	-16224
בדוק	-16225
▁1984	-16226
▁ended	-16227
ינר	-16228
▁תרמו	-16229
▁משפיע	-16230
▁להתגבר	-16231
▁movement	-16232
ומרת	-16233
▁dynamic	-16234
CL	-16235
▁נרכ	-16236
▁מפתחת	-16237
▁חשודים	-16238
▁photograph	-16239
▁`--	-16240
▁איס	-16241
▁המדריך	-16242
▁מתוח	-16243
▁ומיי	-16244
8%	-16245
▁דמו	-16246
▁לטר	-16247
▁אלכוהול	-16248
בונן	-16249
▁השיער	-16250
▁הידיעה	-16251
נגו	-16252
▁ענין	-16253
▁fat	-16254
נועות	-16255
▁proud	-16256
▁מלונות	-16257
ova	-16258
טיחים	-16259
▁החשש	-16260
▁בדברים	-16261
▁קהילות	-16262
באר	-16263
▁בענן	-16264
▁גרמה	-16265
pid	-16266
▁תינוק	-16267
windows	-16268
מלכה	-16269
▁נורו	-16270
▁Texas	-16271
▁מורכבות	-16272
▁שנמצאים	-16273
ניקו	-16274
▁חשב	-16275
▁מפה	-16276
בורות	-16277
▁scripts	-16278
▁improvement	-16279
opped	-16280
▁בונה	-16281
▁במגזר	-16282
options	-16283
▁מופיעים	-16284
פיצה	-16285
▁גרסא	-16286
נפלד	-16287
▁nodes	-16288
▁חובת	-16289
URL	-16290
ture	-16291
▁וגי	-16292
▁eventually	-16293
וגני	-16294
▁Africa	-16295
▁ברבעון	-16296
pub	-16297
inct	-16298
וויל	-16299
▁Washington	-16300
YWNr	-16301
▁Muse	-16302
▁מתקדמות	-16303
`)	-16304
▁הקת	-16305
▁שוחד	-16306
▁שהוביל	-16307
▁exciting	-16308
▁דינ	-16309
▁טיפוס	-16310
▁Education	-16311
▁שרכ	-16312
▁הגידול	-16313
▁ולהצ	-16314
▁2017.	-16315
▁libraries	-16316
▁professionals	-16317
bal	-16318
oma	-16319
רשם	-16320
item	-16321
task	-16322
▁מחד	-16323
▁תקין	-16324
ilitary	-16325
▁משלמים	-16326
צן	-16327
▁למשת	-16328
▁טכנולוגיית	-16329
ליס	-16330
▁`@	-16331
סטיים	-16332
▁דפוס	-16333
▁ניהל	-16334
▁פלסטיק	-16335
▁תשס	-16336
▁הפסח	-16337
▁outdo	-16338
▁Before	-16339
▁הנאה	-16340
▁מונו	-16341
מהלך	-16342
▁פעולת	-16343
Message	-16344
▁גרג	-16345
▁קרל	-16346
▁להתעלם	-16347
▁לבנה	-16348
▁Source	-16349
nl	-16350
14]	-16351
ches	-16352
▁ייר	-16353
▁מונט	-16354
▁ריאל	-16355
▁בולטים	-16356
וחד	-16357
▁Pan	-16358
▁לרא	-16359
▁אסט	-16360
▁תומר	-16361
▁פתחו	-16362
▁שאינ	-16363
▁breat	-16364
▁המדרש	-16365
▁הניק	-16366
▁ואינ	-16367
▁מפורס	-16368
▁שקיים	-16369
▁1987	-16370
['	-16371
גדור	-16372
פקוד	-16373
▁למדו	-16374
▁rank	-16375
▁תקצי	-16376
▁והסביבה	-16377
▁השפעת	-16378
▁totally	-16379
▁באחריות	-16380
aching	-16381
▁בכמות	-16382
▁father	-16383
▁נמוכים	-16384
▁לחיי	-16385
▁השתנה	-16386
▁באנגליה	-16387
▁residents	-16388
/17	-16389
▁חצ	-16390
export	-16391
▁לזכויות	-16392
life	-16393
▁Global	-16394
▁הפעולות	-16395
▁המקצועית	-16396
▁לגמר	-16397
▁knows	-16398
ריהם	-16399
▁נשר	-16400
▁לדרגת	-16401
▁התחילה	-16402
וספות	-16403
▁היין	-16404
▁Amazon	-16405
▁התערבות	-16406
▁הנחיות	-16407
▁לסוג	-16408
▁).	-16409
▁Admin	-16410
▁נסיון	-16411
▁התגובות	-16412
▁להטיל	-16413
▁מקסיקו	-16414
pret	-16415
▁(10	-16416
▁תפס	-16417
▁שרשרת	-16418
ocolate	-16419
▁income	-16420
▁medium	-16421
($	-16422
ונתן	-16423
▁המונח	-16424
אופ	-16425
▁קיסר	-16426
רועות	-16427
▁החכם	-16428
[...]
